/**
  ******************************************************************************
  * @file    network_data_params.c
  * @author  AST Embedded Analytics Research Platform
  * @date    2026-04-09T19:26:47+0200
  * @brief   AI Tool Automatic Code Generator for Embedded NN computing
  ******************************************************************************
  * Copyright (c) 2026 STMicroelectronics.
  * All rights reserved.
  *
  * This software is licensed under terms that can be found in the LICENSE file
  * in the root directory of this software component.
  * If no LICENSE file comes with this software, it is provided AS-IS.
  ******************************************************************************
  */

#include "network_data_params.h"


/**  Activations Section  ****************************************************/
ai_handle g_network_activations_table[1 + 2] = {
  AI_HANDLE_PTR(AI_MAGIC_MARKER),
  AI_HANDLE_PTR(NULL),
  AI_HANDLE_PTR(AI_MAGIC_MARKER),
};




/**  Weights Section  ********************************************************/
AI_ALIGNED(32)
const ai_u64 s_network_weights_array_u64[998] = {
  0x6f66697f4e777572U, 0x67787679381e253dU, 0x294355f22a557f71U, 0x362ca416171717fU,
  0x5789bd2181e73e87U, 0x818ced72737f3146U, 0x714c72786a0c3043U, 0x6c3ad0925041e97fU,
  0x362d574d717f4c7dU, 0x17800000101U, 0xe4d000001f6U, 0x2db000001ccU,
  0x1160000007dU, 0xfb02fc13f1f710f7U, 0x14ad02fb0ffa03f6U, 0xd281542ab7f9e5cbU,
  0x36d92f4ee4654026U, 0x6d13732b3143628U, 0x22e36c4792373f1bU, 0x36372965d1755a50U,
  0x37102035b331301dU, 0x162c3c2fd2124d0fU, 0x2fe65e6cfd54231fU, 0xf1d5705fbc1e1203U,
  0xf3bb7f569f111beaU, 0x3c454145972d381cU, 0x1d353d328b203919U, 0x39435353f0222e30U,
  0xee26a5a6b0aec6ecU, 0xf92dadbbd8cdcadfU, 0xf836d8d102dbecf5U, 0x3d5ef3f6f0191f28U,
  0x566af41b04292f5aU, 0x566a1731f73f5e54U, 0xf814c5bef5ebbce3U, 0xd3fcfc404dcf610U,
  0x397f1013dd14433dU, 0xa7cec7bdfea3a4a6U, 0xc812d6c6eab9d0c5U, 0x154be9efea032513U,
  0x12fadccc24f7ec07U, 0xfbebd7df47e0c4c4U, 0xd1f80f00e0d8f8d0U, 0xdfc91f1d1bfbe3c9U,
  0xdfeb2f28d30214e7U, 0x19ef4724f017210fU, 0x8f07f60e2332e1aU, 0x280059321a123224U,
  0x340c00ee64192329U, 0xd63107eb81ff2700U, 0x2be8e804ef334531U, 0x398be0fd3710020cU,
  0x202fdd14d8415829U, 0x53f1d8f12c213d3fU, 0x24b306185c1a10faU, 0x3346ec09e9434652U,
  0x3c1cee310164494bU, 0x3bc1170f181806fdU, 0x28f46d7f8e594918U, 0x19ec5553a0273329U,
  0x29c25e40113f2627U, 0x2c5818f0c2fd0736U, 0x376befe9c2052d10U, 0x362c1d4600372833U,
  0xb90d9c9e0092ada7U, 0xe446d0cac5e6efe9U, 0x23330f29f122281cU, 0x10d5252129230104U,
  0xf2c009f21afbd1e7U, 0xd9dbf3e312d1bdccU, 0x361f7375ce573432U, 0x6cf7878c4463a0dU,
  0xe1c9716ad22933eeU, 0x136ffafbc31d1116U, 0xa7f2033a9133832U, 0x174d5748dc33232bU,
  0x6207373a17415d58U, 0x3f3529301a615240U, 0x6e392f4146243463U, 0x242aa2003733ff39U,
  0x1330b7e831110b39U, 0x3ff818c74dacf15U, 0xf1eac0bbefc8cdd7U, 0xa9e2c49aef9185a6U,
  0xcacf02eaf3a9b69dU, 0x4eff3f1fb12100dU, 0x1d50b13da25fafdU, 0x13dcfe0ddc2b3226U,
  0x1703fcbc021d1dU, 0x13f9f80fcbfb063aU, 0x34afc7e145142721U, 0x2339d6e9da180d1aU,
  0x1e17dde74733493aU, 0xdba93c97f07dd0dU, 0x2b12dc000c382a22U, 0x20e9f40b1c1e0b11U,
  0xceb70c0710ffe3cbU, 0x1838eb23e229fe03U, 0x130a3239eb262b05U, 0x3c44736051bf7feU,
  0xfd3fff0e810a1904U, 0x15171317d00d3224U, 0x251c0b2303240915U, 0x4c03420f3290227U,
  0x1fd031351f0df8f2U, 0xedb56057f419fbceU, 0x2b0111091d3f1542U, 0x290032230828171bU,
  0x2e242e4dda2b4b33U, 0x3801cbe03422f012U, 0xfe1c81bd0ad2eddbU, 0xe22d9d98f4bfbde4U,
  0xd964d63e41d1ad6U, 0xbbcb413690f1edc6U, 0xa981542ea7eddaacU, 0x311c5372d5333815U,
  0x11007c51c02d2b01U, 0x30165774863731faU, 0x1f310eedc70a002cU, 0x323fe7f7fa1ef517U,
  0x135ff0f803031b19U, 0x9bdedfc6c8adba8eU, 0xc720a0acb695b2c4U, 0xfa598181f9a9e207U,
  0xebdb4839b61122f1U, 0xc0bb4532c434f5edU, 0xbbb84112ae08d9ddU, 0x3e196a6c03574a53U,
  0x29247871f9444a2dU, 0x2d047264db2b2a07U, 0x2740fb21d8212c1bU, 0x2dfe0d185c273a37U,
  0xf09fd1fd64e6d306U, 0x313ce1f4da12291cU, 0x334d381c05392039U, 0x10b92e4e2741f8f2U,
  0xe936a3cec6f211ffU, 0x254234409f3e2c45U, 0x33267f7dd03e484cU, 0x3ff0f21f783b3b2aU,
  0x20c3cd027f09de02U, 0xdbe4d4f923c8dde9U, 0x431103366d4a3129U, 0xf9c31d24540cdffaU,
  0xca0be1e809e3dfdeU, 0x292bfd401b44203aU, 0x11f11e291c1b2417U, 0xe4fb1b0f1816f7f6U,
  0xdad4d2b903b3cab0U, 0x1b37fbf881462622U, 0x1ae3f1442851203bU, 0xf50dfce8a0d6e4f9U,
  0x21332c39dd1b555cU, 0x38b10c22365c2e57U, 0x39140e0fca3a3714U, 0x6e2ece0329614147U,
  0x4bf02b2d6771332cU, 0xfffffb6cffffff56U, 0xfffffec60000011aU, 0xfffffb19fffffe6fU,
  0x3b8fffffc10U, 0xfffffabafffffcfbU, 0x1fffffebeU, 0xfffffc78000004dbU,
  0xfffffb9efffffdb4U, 0xfb130d0c0b0a08fcU, 0xd4efead5fb16fa00U, 0xa10200c0cf3f9fbU,
  0x210afa05f0f4010dU, 0xf3e8e4f2f10213fdU, 0xc0d2318f30c0103U, 0xfd4400fa17ef1220U,
  0xd8e1df15ecedf60dU, 0x41e0d2ef10e09f6U, 0xfff413130c0bfefbU, 0xe319e7e00aedefe3U,
  0x1d260300fdf6090bU, 0x2b1c1b170617f5fbU, 0xcd2102e6fd0b04f6U, 0xff070f0f0707ff09U,
  0x11381e11dbea0dfdU, 0x23f113deef010713U, 0x34f6001e0ff9f208U, 0x1f1a24eefc04f713U,
  0xdcf8eee90eed14fdU, 0xf4111006ff080400U, 0xce7241bfe25f6f2U, 0xee07f3e0071006faU,
  0x1b290df7f9f7ff0eU, 0x14cd141efa0004f2U, 0xe44de6f70b02f4faU, 0xdb0aede6f301f3f5U,
  0xc227fb1febe4f901U, 0x3de0bf8ef0cfb10U, 0x23eafa1106fdf5f6U, 0x26e92212f3f9f029U,
  0xe9f10302f2fe0012U, 0xfd05fe0604fbfcf2U, 0x1e1a141f102e05fbU, 0xf222f0e01e1e19fbU,
  0xf31a00dc03060b00U, 0x16d0fb0d05f8e1fbU, 0xeb36e2df10d80f01U, 0xbcdfdfcc04f5090fU,
  0xd411ff18fdf0f904U, 0xf2e61bf5f3050806U, 0x7d8ebd50206fb07U, 0x190c0f1406090203U,
  0xe1feeb0e07160b04U, 0xe209d5dd0d04000bU, 0xa0d0f14100606f9U, 0xfe04e5f21a14150eU,
  0xe308e3dbf3f804f3U, 0xe8e00df814eef20bU, 0xe010f1e2f9fe10faU, 0xdce9d2b90300090eU,
  0xf91fdefc13070717U, 0xfce9fbf515f62315U, 0xfc7c8c3fc09f205U, 0x9fa05070a211121U,
  0xf909f0f80a10fb0fU, 0xb1cbcab303faf000U, 0xfd0c01082a0317fdU, 0xe8f7ece90002f5fcU,
  0xbdd6d4d2f7f4f9efU, 0xf10e1df00518fa08U, 0xedd9ebe2f804faf7U, 0x1d05131a08f1fff7U,
  0x470bf7d2e10423f9U, 0xd2f5dae6edee0c01U, 0x2c250b13050309f8U, 0x173beced01dc0df0U,
  0xeef8f9d0f8e8f6faU, 0x4061e1ff50bf0f7U, 0xe5fffd09fdff13f1U, 0xfa0b0f0702f5f4e0U,
  0x1521150af6070ff2U, 0x4122f0df2ffeb02U, 0xe6fce3f0f502f9f6U, 0x1501fe04fff6fef5U,
  0x1e040a01aceb000eU, 0xb901f7f01b04faffU, 0x2008f00d09f7fff5U, 0x25220519dfd90bf5U,
  0xeaddf0d703fc060dU, 0xb14fd13fff50ff4U, 0xec5fefe0a4110d9U, 0xe2f90315f90bfef4U,
  0x132009f9f5fcf4f9U, 0xf52b2e0efadedd02U, 0x1206eb0ce2010af9U, 0xefdbe4f4ef0b030aU,
  0x370b2df1a820f00bU, 0xd5f8e6f00dfffc1aU, 0xfdfedf60ff903f6U, 0x71e0927f8ed20fdU,
  0xedeffb03f206fa09U, 0xdef8e3ee0c0d07f0U, 0xfde604fd042d13d8U, 0xfe00f02f0c11f2f4U,
  0xe603f1eef5f5f6f9U, 0xd4292a0e1fc1d1feU, 0xfb07d6f6e414150eU, 0x2ab5c0fe0ef3f7f2U,
  0x24ef19fdfafce218U, 0xf5f4eff716fe0713U, 0xe1efc1f10c0f0cf7U, 0x21d031107f5fc17U,
  0xdaecf7fbfb19fcfeU, 0xf4f1f8d60e080c02U, 0xf7f509e3152707f3U, 0xfd1101f109081213U,
  0xf2ebf82bf9f006f7U, 0xdbf8ede91cfa0412U, 0xf4d8ddf6e8330c06U, 0x42ccfb11020c0dfbU,
  0xf4f6070034ff0f10U, 0x9dec7e4140c12faU, 0xed07e3f6f3f301f2U, 0xf90f111bfa220013U,
  0xd9fee90209f3ffefU, 0x19f4f6eaf8fa0100U, 0xa00face18f505ebU, 0xe505d4f2e2f91e10U,
  0x15e4103af8faf405U, 0x13080dddfb1c18fdU, 0x350213180cf5d906U, 0x3160c01040bf8f6U,
  0x30e7f7b4e2021ff8U, 0x2c280bfbc5efff10U, 0x24f01122fdf00c02U, 0x1d0ddfedfa020de9U,
  0x2c231408f0afe51cU, 0xfaf0151bfff50b09U, 0xd4c4ca2bfde2130aU, 0xfefe1b5c0adff3cfU,
  0x815fbdf07f908ffU, 0x171109e30215260fU, 0x240029180ff1dbf5U, 0xedf100fcfffe06f9U,
  0x2ceafce3f73002f5U, 0xf82209060ee4f40bU, 0x35f6060803fa09ffU, 0xefe5db1407280be1U,
  0x1b130efdf4e2ed15U, 0xddf902f30cf7fdf4U, 0xf2c4d80d03160c13U, 0xedcf64c1adff1fbU,
  0xf11ef5d70af505ffU, 0xed06d1f1f528140eU, 0xcf51b15ddf2dcf3U, 0x20f8fef1060f04f1U,
  0x10d5f20eeb2823f9U, 0xce23122005e2eb14U, 0xf307f303f3f502f3U, 0xe1e2f0f812042518U,
  0xb0311ead3f9f70cU, 0xf8fa0211f0090d0cU, 0xff070ae710121ff2U, 0xf6150641f90d0003U,
  0x12fc08e9fffc03f2U, 0x1a13d903fde11417U, 0xccfff0ae51ae9faU, 0x25cc0619f504f4f4U,
  0xf1f4e1fc1b0e0311U, 0xcb18fffff7e2e7e5U, 0xeefb0414faf9f9f8U, 0xe8f8f2e8071f010fU,
  0xafe0502e4e7eef7U, 0x211bfe08f10b0001U, 0xf012f4eb0f2007eeU, 0xfd0a0145fe05faf8U,
  0x11fdf60a07fcf8faU, 0x11ebe5e8fa1c0eefU, 0x2bbdfe07f51bf5fbU, 0x200f230a04fdfcfdU,
  0x10fcdb0c36f808ecU, 0xd709ebfdb804f6f2U, 0xe2d1f16f2f4f903U, 0xccf0ee10defdef0cU,
  0xeecfef2000107feU, 0x2c1f191807f2f6f4U, 0xfef9f1130606e0dbU, 0xfc0ef930eff4f803U,
  0x1df22604f9f204faU, 0x2aefe6e3161604f0U, 0x1b243d180cfbe7feU, 0xecf3fcf606f5f9f8U,
  0x11e5d7c4280dfadeU, 0x26140f0abeec0322U, 0xf3f90d1a040ef4f7U, 0x17f6d8eb0fdb0215U,
  0x263be91ed4c2f718U, 0xeb1013fffc090bf6U, 0xd8d7bd0105d9d714U, 0x1015ff20f511f6b1U,
  0x131616e5f8f9f8f8U, 0xf07dded36190adaU, 0xf3fc0ff9f7f2ddf3U, 0x1b09f212f2f9fcf9U,
  0x13d5ed0600d0fbf1U, 0x40fc220be4ecfd23U, 0xe9ff010809fbf1f1U, 0xccf0f611ed03e502U,
  0xf20d0404c9d8fb2aU, 0xf3f216000506f20eU, 0xf8d0ec01f6c4eb0fU, 0x7fffd0f24020697U,
  0xf623020afd0908f3U, 0xe0f2ef03e41508ecU, 0xf7261cfaf2d7e011U, 0x17faef05fafa0ef8U,
  0x7fc0012f5e51d22U, 0x2e0a19fa01e8f120U, 0xdb07fc1bfd09f30dU, 0xe8090f060105170aU,
  0x41b0f0ae5231405U, 0xff03f712f3fc00f8U, 0x60c08f313fa07e4U, 0xce106e5ff2613cdU,
  0x15fc02190bf006f7U, 0xbffeb0bc7fe0d04U, 0xed08342006e6fb0cU, 0x1ce4140c0907f8f1U,
  0xf320f70215fa05fcU, 0x1f131104f6fde80bU, 0x241ff515f9fef80aU, 0x1606f9e80e091608U,
  0x1e1d14070905f8ffU, 0xf81e1d0df60202fbU, 0xf3090306e7190be7U, 0xfe0a18f509100fedU,
  0x11170dd9fc08fe05U, 0x271ffe06011ce9e0U, 0x103e2d0a250cfd13U, 0xe010c08080e1007U,
  0xe822f7fffdf4f2daU, 0x1a1a250a05ff0af5U, 0x280a110ff4f1f5f1U, 0xcfef5fbfde0fbe2U,
  0x2012f9050313f5f3U, 0x61a0125f1f1f2f1U, 0x901f743f0fedfedU, 0xe6e6f80805ed032aU,
  0x21f9f7e809f2f20dU, 0x3fe4070d0b00fc03U, 0xd3070cda0a000205U, 0xe2fddceff1f6fbf9U,
  0xbe19f225c8f00402U, 0x26e403eeed10f82bU, 0xbe7f0000a03050bU, 0x11fe1a14ff0bea05U,
  0xec0cfe08e2ed1616U, 0xe1ddf4e8fa00f50cU, 0xfb45ff180de4fbd1U, 0xfa0bf9f2162d17c3U,
  0xf41be6e5f7f604f6U, 0x7e1e614eef7e0e9U, 0xe3060cddef0df4efU, 0xfd0bf2ed02f9020cU,
  0xd607f112acecdf09U, 0x22f801f2eff80c14U, 0xfff313db0f0f00f4U, 0xffdfebecd2ecdf05U,
  0xeaedf107cceb1d0cU, 0xf3ebe601f700fbfeU, 0x43002f10509f1c6U, 0xf6fcfc090b401ac1U,
  0xf500e2f707050700U, 0x7fde706b707e1f7U, 0xea0df3c6ff01100cU, 0xe2161607000109f5U,
  0xdffcfe0bd3fa0318U, 0x28e2f2e5072a0c13U, 0x17fa1708f50bf203U, 0xeffc0a04d402fbefU,
  0xedeedee003fe1fffU, 0xf61a0f120300fa07U, 0x111605ec192007bcU, 0xeeecdc160e330dfaU,
  0xbea1ede020cfffcU, 0x110f0c0df1e9f103U, 0xf11506e01ffb190dU, 0xc142ef8fa09f204U,
  0xfc0bfbf1e617d8ffU, 0xddaefdd12131407U, 0x1f0805fa050bfc05U, 0x21031510fdf807edU,
  0xe4deeeec24fe0a0bU, 0x110b1403f9f70608U, 0x121910ddf21808d5U, 0xece00207fe010a18U,
  0xf1f503f8fff009f7U, 0x10f070af5c6f202U, 0xfd1d03ed2a300c05U, 0xfd0d00e6010cf108U,
  0x2191216c305c9eeU, 0x5f7ffee0cfa0bfbU, 0x2cdffcf3f1f30706U, 0x2a1500feeed7f8e0U,
  0xdf4eaf725fc0303U, 0xdff2fcec0df80efcU, 0x700fff7fbf3eed9U, 0xebfcf10cf60a0932U,
  0xe303fceffb090306U, 0xf1eb14e9ddfae2daU, 0xfaf7f2feedf1e5f3U, 0xebfd10f500f9fcf3U,
  0x17f9e0e003e4dafaU, 0xf6f8f7fd0ef8dfebU, 0x13e9f30bfa0905f5U, 0xee0deef7e8eee6daU,
  0xfbfaee01f4dcf50aU, 0xb100019fa0ef5ffU, 0xd903f500e9f1e1f6U, 0xd0d0b06ecd0e7deU,
  0xfaf8f002f6f1ff02U, 0xf4fc07e1c9ddfad2U, 0xf00cf2f3faf7f3f5U, 0xe80bf6fc0bee0502U,
  0x14f4fee214cdd5e8U, 0x50cfa0147f9e9f1U, 0xe2f00be9fc010000U, 0xeb00e7f2d9dbdef0U,
  0xfafd06f6e306e90bU, 0xf1d9ece0f508f9eeU, 0xe9edfee5dceab4c6U, 0xf10402f602d7faf8U,
  0xe5f20ffc05fdf40cU, 0x60be5ecaf2008b9U, 0xf4ff0bf106120ff7U, 0x1d1be911fffded04U,
  0xf5ebfaf825ca02abU, 0xfbfdfafdddf919f5U, 0x810d152103fb0405U, 0xeef0fb02d303bec8U,
  0x404eefd051210fdU, 0xf4cf2111eff102edU, 0xf0dff709b4dbcfb5U, 0xf405fb070bf3f906U,
  0x17222812f9f6f8f8U, 0xf6fdd6f0f7621effU, 0xf9f907f4fe170af2U, 0xfd1e4120105ee0aU,
  0xc501e7fd0dec12f0U, 0xf3f1fe01c9032e11U, 0xbcf7b5fefcfa03fcU, 0xf6faf8f1f8da0eedU,
  0xfcf90c0cfc0512feU, 0xff06f7f5f0f00df6U, 0xf405faf6fbb310e3U, 0xf3fef1ef140b0710U,
  0xf335dd23fff3f3f6U, 0x80ee4f91a0b2f01U, 0xf2fe01f9db2203f9U, 0xc5fad2c605eb0b01U,
  0xeefbd301cd0a2e1fU, 0x103fbf7e5f1130eU, 0xe0c4a6c1030405f2U, 0xecfde8ec16061520U,
  0xe0d00ff01ebf0ebU, 0xdfe3c2c4f308ee07U, 0xf2faf01014192819U, 0xf8f9f40fe71e0902U,
  0xb7eac1dc06f3030bU, 0xfbf9ef220fd5f618U, 0xf507f50712e1dbf8U, 0xdee6f7e1f80dfaf9U,
  0xef1fe504f517e711U, 0x6f9f8f411ede3fbU, 0x19eaeddafd0ef305U, 0xfffb07d6fdf001feU,
  0xfd01ee00e50edc0dU, 0xe6fde4f70dfef007U, 0xff3dfe1ff7071438U, 0xf2f1020801dee8f2U,
  0xddd7efd1f8f9f7fdU, 0xb0bf800f5ccf206U, 0xf9f5fc0114feeeeeU, 0xefffa03fff00901U,
  0xf40feb04eafcbddcU, 0xf4010603d5fbe6f5U, 0xd7fc0e0405f5fa03U, 0xfde8ffeaebede3a8U,
  0xf7ee02fbf4f602f6U, 0xdcee0902f0faf0U, 0x12fefa27db0ff034U, 0x40a01050cf40d10U,
  0xfd104f6040e0c05U, 0x22f6f20324e5caecU, 0xfd0a05ed2905ea00U, 0x19e7fd1708030505U,
  0xfcfffcfb9f07efbeU, 0x30700edd1fd0401U, 0xa9201135f407fbefU, 0x1405f712eebc0cc8U,
  0xb050606fae30cf3U, 0x5fa171c09f403feU, 0x711f91ef1d4f438U, 0xf0f2ed05ff0af609U,
  0x2cfe2fed0500f5ecU, 0xe02e0f12fe1e810U, 0x2f5f0ee0827e4e5U, 0xf5a0fd1c0efbf000U,
  0xee01eb16e2ebe816U, 0xfcf2faf2dcfdf1f8U, 0xce18dd22070bfa08U, 0xfefc0d1b0ae1fe0aU,
  0xfafa03f6f2e4fd01U, 0x11fc1ff9fdf9f1f2U, 0xb1e0a0010e70241U, 0x300fc09f503f1d9U,
  0x441021300ff09f5U, 0xefe7f4fdda1a0b20U, 0xfe03fbeff215e2f4U, 0xe4bfd6dbfbfcff01U,
  0xfafafe0d0b102415U, 0xf6f401f5bcffedf5U, 0xb7ded6ceeaf6fa02U, 0xf00b0007f604200dU,
  0xfff604f5ef02efU, 0xdbe0f4ddf304f20dU, 0xfd0efa021f1724f6U, 0xf0060cfa07fd1fe1U,
  0xc6e2d6edf708fc02U, 0x21ee1d203ff80c4cU, 0xb07010a2000e906U, 0xe9fdd9c5f1fb0100U,
  0xd81e0a0ef8350e37U, 0xf803fd0fdd2004ffU, 0xefc8e9c6f7f9fbf0U, 0x27120b08500c343aU,
  0xf1f4f3f10c01fdeeU, 0xf7d9d8d804f1f102U, 0x70e1af7430a2149U, 0x7ee0106021019fbU,
  0xd2f2df06faf4f509U, 0x1ceb122b33d3122fU, 0xf3040b070c0601fdU, 0xf136f003f2fff4f5U,
  0xf31512240e2aec13U, 0x506f10bc10bf7fcU, 0xe8fa0dfa0306fc01U, 0x160e0111493a18e9U,
  0xb01edfbfa0a09faU, 0xeaddea01ffed040cU, 0x120306260a0cf633U, 0xfaff0005ef0c1b12U,
  0x15ea0fc100f0fd01U, 0xf80f130722e7220aU, 0xfefdff070a0804ffU, 0xd3211821f0f50705U,
  0xd0e06080bff1f15U, 0xf1f8f2fc032bfcfbU, 0xe51c1931ff040bf0U, 0xf81ef6003b0cf42aU,
  0xef01f7fdf9fc0bf8U, 0xa01190a06fcfeefU, 0x4190c0a13cc004bU, 0xfb0beffefe0d0d11U,
  0x290c20b109f9f5f1U, 0x605f214e70f0f0bU, 0x10f600f940e30408U, 0xfbcf2723f5fefdf1U,
  0xe91cfc222bf70720U, 0xbf6fffdef0c070bU, 0xe51c0826f400fbedU, 0x12050d220912fd04U,
  0xfbf0f1fae9e4050cU, 0x150b322bfa05f0f0U, 0x51407f021fffd2bU, 0xfb07f40708f60100U,
  0xd2d25e2fff3f208U, 0x4defff2efe1516fcU, 0xf007faef2bd2e311U, 0xecc7e70dfdfafff2U,
  0xf90fff130e0a1c11U, 0xef08f8f107f2de17U, 0xeff7d4f2f9fc09fdU, 0x1114190ff51b201cU,
  0xfa09fafbe0ff0908U, 0xcfaf8f5f20f0200U, 0x102bf919181813ebU, 0x8fe0d051009fee4U,
  0xf603ed05f20cf409U, 0x2150105072a173fU, 0xf2f3000b1b08fb0cU, 0xdafaddd9f007f4f9U,
  0xdf2020e05172e2eU, 0xfcf2fdf2dc01110dU, 0xdce9e2ce0bf305f9U, 0xd704161a17163929U,
  0x60bffff04010210U, 0xcfebd9e8f9faf506U, 0x1218f6e320103fecU, 0xf603f1f6fb030aebU,
  0xd202de1502f009f2U, 0x2231cf800fa131cU, 0x801ff0d07ecfc03U, 0xae2d05f0f2090108U,
  0x29082700071d0b2eU, 0x8ee0404f6fb16faU, 0x23e1fbdef90cf7f5U, 0x1e2b04ee1517123aU,
  0xf1faef0a03041017U, 0xdc09ecc9eef4f3f1U, 0xf20bf9ef1e3113daU, 0xf9f10dfa0e010ecfU,
  0xdcd9e2fef50309feU, 0xfe2727f2e3f9f006U, 0x80dffff0a0e190aU, 0xe8520aff0000efeeU,
  0x13f723fc40f9001bU, 0xfaf5f7f40f0917f2U, 0xd023609ed05f70bU, 0xd1bfa13f420e709U,
  0xfbeeeff8fe0cfbeeU, 0xf6ed201904fbf0efU, 0x4fcfaf3fc0405f9U, 0x4000704ee03f6f6U,
  0xcd320fc0d05f3edU, 0xf1fc241bff1d0df2U, 0xf8f8f809050c03e2U, 0xd51f0c12f707f7fcU,
  0x33f0151822d50803U, 0x5f400ee03ff18e5U, 0x11000028f30504ffU, 0x15300719dcfff204U,
  0x7eeeff7f7e1fb04U, 0xa181624040f01fdU, 0xffa03fffd0404e5U, 0xa06f6fce7ec0500U,
  0x10151cfe050a0908U, 0xf30f4207cf220eeaU, 0x8010bf21c1ef705U, 0x171606fafbf40e0aU,
  0x4407191235c60e0cU, 0xfa0703ee0a0818efU, 0x370c0aef08f1f805U, 0xe271b28c302ee1bU,
  0x1000afd0701f806U, 0xf412f70af8fc04f9U, 0x240e0dedfcf1ffc5U, 0x3ffeff5edfe17f2U,
  0xf4f8eef1eefa07fbU, 0xfee8f1eae6140609U, 0xfc07f2fef6180601U, 0xfbdc03f80802eff9U,
  0x11e9f2f311f82419U, 0xf6fd04f1f810fc19U, 0x15f1e9d2f5f50df7U, 0xecd100fdf6f2182bU,
  0x2000800f52103e6U, 0xf608edecf601090dU, 0xf0fbebe922f611f0U, 0xf20a0d0cfd2f1bedU,
  0xd7e1e8fe02fd0bf4U, 0x16eee2c5d02604ecU, 0x30b0102ea011e01U, 0x12fbfee8fbfa0700U,
  0x4c0ebfc25fa0d1bU, 0x9fe000dfd1a0811U, 0xf9e2ddcffe02ff08U, 0xdffbf009d8e8fa17U,
  0xf8ff08f205160fdcU, 0x14e9d7fdfdfb04fdU, 0xe7e7dfd2070700bfU, 0xf2faef04ec2521e5U,
  0xe6dbd028f3f208f3U, 0xc216cfd8d1f3f9f9U, 0xf3f3f80818f023f5U, 0xde29dcef02f4040cU,
  0x3bff30119f503ffU, 0xf40407fe0419f7daU, 0x4ed1518ee02f30bU, 0xbae9d108eef505f8U,
  0xf9f2f1ff0ffb0ff3U, 0xeeee0103fb01f0U, 0xe0ae2c3ed09fafbU, 0x3f8fe05e511ff11U,
  0x29c5f62af9fdf9fbU, 0x8d1edcf2ecf0e8ddU, 0xff03f6001bf801f4U, 0xae1406fcf0f40906U,
  0x21cfe10f04caf4cdU, 0xed070cf4f5f9f8e7U, 0x2310f600f60008f7U, 0x9efdeae5e0dff1d3U,
  0x1f4f00efbf1e8U, 0xf51112ff07000af2U, 0xf01e07a3e4e1dff9U, 0xf5f2f20b0bdbef2fU,
  0xe62e21f9ed0205feU, 0x931be4e3bfedd3c6U, 0x4eff40a12fa070aU, 0x22af3ecf70bfdf8U,
  0xf8d7e4e2f3c0c8ceU, 0xeff0f6eff30218f9U, 0x8fa12e0f2f3f7fdU, 0xb6e1eadcc7f3e6e8U,
  0xfaf1fb000df1f20dU, 0xfce7e1fff604eef6U, 0xd602eb8ec7f0dedfU, 0xff0a06f50df8f415U,
  0xede2de090b05f507U, 0xfc01f109040f0703U, 0xf00ef50300f302f6U, 0xfd090ef0fbf1f7ffU,
  0x4f3fd06f203fd09U, 0xf8f2f300f70f0e0fU, 0xf9fcf9fb010bf8efU, 0xf008080107100dfdU,
  0xa0def06fb0e0bf1U, 0xf3f702f0010700f5U, 0x8f7f1020ff2f6U, 0xe040207f6fc0dU,
  0x208000af50bfcf7U, 0x90c0c09fdfaf5faU, 0x6fd0bfffd0ef4faU, 0xfb0207ff0f0cf7faU,
  0x5fa0401f80e0df9U, 0xf70a050af3f0f7f5U, 0xf5f4f30d0def0affU, 0x2050405fe06fffeU,
  0xf3fcfdf80809f701U, 0xf2fffaf80900f401U, 0x50f05fa06fdfc0cU, 0xf3ef0203fdf20805U,
  0xfdf6f509ff080cf7U, 0x8fffe0501f2f9f7U, 0x4f7fd03fdf7fc02U, 0x503f20ef8f808f5U,
  0xf8fc0af1fc0b0102U, 0xfdfbfb010af2f003U, 0xf502f6fc06f608f6U, 0xfcfd0dfbf90dfd0aU,
  0xf9f60b080b01f003U, 0xfef2fbf1fcf7f4faU, 0x9fffc08f3f003feU, 0xf901f30cf9f8f6f8U,
  0xbfc09080d0901f8U, 0xf6fdf20cf3f600f9U, 0x4f7f0f6f409010dU, 0xf308f709fd04f504U,
  0xfc0dfb07080cf2feU, 0x10fa00fef2f104f0U, 0x7fef9f60cfdf1f0U, 0xbf50303fbf30ff1U,
  0xd0202f6fafc040dU, 0xfef050ff6ef07ffU, 0xfff1fef2f3eff208U, 0xfbfc080a00fdfeffU,
  0xf2f8f5fafff706U, 0xfaf80bf90df30e01U, 0xf9f1faf80df801f1U, 0xd1f0d381d080a1cU,
  0x2915092c20192923U, 0x192b0c1e03050514U, 0x180a221e2a161419U, 0x90e0710eb0a1612U,
  0x80f161720091908U, 0xdff91901f6190002U, 0xee09110c06fc0fffU, 0xb1153202ee161908U,
  0xf05130bfcf415f6U, 0x43162115fe022618U, 0x13f1071811320a16U, 0x2cf20d0402201d11U,
  0xfdf3eaee0e0a080dU, 0x5e9fdfae01c19f5U, 0xf609f3d2071bf208U, 0xe3ee00f8fd2001e9U,
  0xd030ae500f30017U, 0xdffd1514dd26f116U, 0x190e1ef0060c1015U, 0x3cf2f3f313fff6fdU,
  0xbceeffb06f30323U, 0x30dbfcf403e6ecfaU, 0xf6edea06070a03fdU, 0xeee2e80009f0e2f5U,
  0xf3f6efeddedbe6fcU, 0x8d4e6f6f6e5d9e6U, 0xaf2e4b7c7e6f300U, 0x18d304fbe13201f2U,
  0x14fe04ceda12fb1aU, 0xd106fc0deed8fbefU, 0xbf2f1d6fae91215U, 0xd305070114ede6f5U,
  0xefdffd40df3f50bU, 0xf303f30deec9d7fbU, 0xf9050bd5ed05fc17U, 0x805dcfb23c4f102U,
  0xeefceafddbf5e2eaU, 0x11ebe1f016fbe4f9U, 0x1bd5f708ddf2e205U, 0xe0ebf11ded05f70bU,
  0x6030bd8dce40501U, 0xfafafbfff0f8eb06U, 0xa1606cae3e50704U, 0xf81af20206061617U,
  0x2423e40c0e22f1U, 0xec1b04f73fed071dU, 0x10a0a3a2f140d0eU, 0x521fb0943011119U,
  0xd0b035618f3fb05U, 0xee270bfa1af8ff18U, 0x17081f1916f612feU, 0x42b15221df8140cU,
  0x29ff0c2711112b2bU, 0x2ff8f80d0cd311f9U, 0xfc1afcff0226030eU, 0x30132307003316f9U,
  0x2f813f80e0d06eaU, 0xe6fc280217100b10U, 0x15fb1f0a05f01f11U, 0xf070a2317191f16U,
  0x1509122e22281411U, 0x3e03041101102b0aU, 0x3ff020f0020fe18U, 0x57e108e7db1ffae8U,
  0xd311d8f5e113ebefU, 0x2bdf18f8ea4409e3U, 0xeeeafe11f5e8f8f7U, 0xe00d2916dd380904U,
  0x1b1521070b000a11U, 0x31f9040ef60113feU, 0x10faf7f8f7110e10U, 0x46e8fdee00db00e8U,
  0xddeef0fcf113f5dcU, 0x14dac8d10eeadadcU, 0xe1ecc82dd2daecebU, 0xfbc5e8f2fa15cbe8U,
  0xfdc3cd22ded8e0ecU, 0xffeff91fd62ff4eeU, 0x11fe13d4d4130f03U, 0xeff50efb0bf2ee0eU,
  0xcfd11e7fdf81205U, 0xdc17e71e3aa8f215U, 0x1307f10401ef0c13U, 0x1af3d1f72299dbf4U,
  0xfd08e3280902d907U, 0xf4d8e50031d5cef7U, 0xedf822e0dfdcf4U, 0xf9fcdf1528e3e713U,
  0x1706101ce811fd0bU, 0x1100f0f33120a10U, 0xb010b020425f624U, 0x15152c1c16fc2f17U,
  0x23152bfb18221722U, 0x714070b2bd92111U, 0xef2c101c362b1007U, 0xf22810f9460c1b13U,
  0x1ef503302e0d070dU, 0x19422620312c353aU, 0x50f27503322240fU, 0x3ebf900f0f6f300U,
  0xf4f7fceaf9ecfc07U, 0xda05051012fd0a06U, 0xfcf0f9e808e9f7fbU, 0x1f60c00fae503f4U,
  0x9fd0afb0dfbf906U, 0xf5f0f9fc04d9f70bU, 0xfff3f9fffef8f2fcU, 0xf20eeafefce408fdU,
  0x2fa0af908fbf2f7U, 0xecf1f0ef0a07f2e3U, 0x2eef0e6fdede802U, 0xe9eef60108f6fdf9U,
  0xf0711ddfbf0040cU, 0x19e7ff0de7f0f0e6U, 0xf509f1fae709000bU, 0xfeaf1f9e8fdfff6U,
  0xee05e6fa0bf9eff1U, 0xfe0a02fcf72502fdU, 0xe4f404ffeef2eeeeU, 0xe9fff2f8090c05f2U,
  0x11f700e704e1fafcU, 0xeaff0507d50108f5U, 0xff120cf305011200U, 0xfef1ee07f6e4f5f7U,
  0xfc09f4fcff11ffecU, 0x302eceef006f0e8U, 0xeb06ec00fee6e3e1U, 0xe5f8f7fff736ec00U,
  0xfcdd09fcf2db0401U, 0xe1fd00fbeb0bebeaU, 0xfe0df9deecf4fb08U, 0xdd0af5f0e0f005fcU,
  0xef050becf20206f9U, 0xeae9eef8f1f201f0U, 0xfcf9f807ea0005f4U, 0xe6f1ece4ed0102eaU,
  0xdff8fcf703e9f6ffU, 0xe7ea1005ed06fcffU, 0xfde1f0fe0ef9ef0aU, 0xf4fb06fed7f2f7fcU,
  0xfefef0e4edef04faU, 0xf21314f204040afaU, 0x5070bfdfff516feU, 0xed1afdf613f11313U,
  0xedfa09fc00080af8U, 0xfc09fafc0edbf109U, 0xfcfaf61511fd08f5U, 0xf5fbf50b0ff0faf8U,
  0xbea000202fbf40cU, 0x900000005U, 0x100000011U, 0xafffffffcU,
  0x1900000023U, 0xfffffff6ffffffcdU, 0x1efffffffeU, 0xfffffff4fffffffcU,
  0xfffffff100000012U, 0x47175247d549efe7U, 0x1e8554e03ee53c19U, 0x33d5040f1909b05fU,
  0xf22217f244f81fb6U, 0xd7ec26f925fb1d08U, 0xd9ba1af67ba0f3d7U, 0x54ecf6da1f2abf2fU,
  0xe1cece042005ba21U, 0xc2b7ddab0a22322dU, 0xbb6d0510100e4141U, 0xd3ae4562ad3a5627U,
  0x1bbcf129ac4a41e0U, 0xf2ba4ff32a76eb38U, 0x21c9d345bbcdcff0U, 0x4ddb13a60ae93312U,
  0xaef6407fec0b3adeU, 0x5be484d0adb3138U, 0xcab92136b211ad56U, 0x6ab8ef33edb8d12eU,
  0xd8313d0e1991342bU, 0x200000004U, 0xfffffff300000008U, 0x3fffffffaU,
  0x7fffffff9U, 0x6U,
};


ai_handle g_network_weights_table[1 + 2] = {
  AI_HANDLE_PTR(AI_MAGIC_MARKER),
  AI_HANDLE_PTR(s_network_weights_array_u64),
  AI_HANDLE_PTR(AI_MAGIC_MARKER),
};

