/**
  ******************************************************************************
  * @file    network_data_params.c
  * @author  AST Embedded Analytics Research Platform
  * @date    2026-04-09T18:57:22+0200
  * @brief   AI Tool Automatic Code Generator for Embedded NN computing
  ******************************************************************************
  * Copyright (c) 2026 STMicroelectronics.
  * All rights reserved.
  *
  * This software is licensed under terms that can be found in the LICENSE file
  * in the root directory of this software component.
  * If no LICENSE file comes with this software, it is provided AS-IS.
  ******************************************************************************
  */

#include "network_data_params.h"


/**  Activations Section  ****************************************************/
ai_handle g_network_activations_table[1 + 2] = {
  AI_HANDLE_PTR(AI_MAGIC_MARKER),
  AI_HANDLE_PTR(NULL),
  AI_HANDLE_PTR(AI_MAGIC_MARKER),
};




/**  Weights Section  ********************************************************/
AI_ALIGNED(32)
const ai_u64 s_network_weights_array_u64[3917] = {
  0x3f8252ec3f7d2d6eU, 0x3f2d2a493f8467c0U, 0x3f68e1ea3f8d827aU, 0x3f76455d3f644836U,
  0x3ec53bc03f072427U, 0x3f15af1f3e9fd019U, 0x3f9ccf713fa19e63U, 0x3f89a3cb3f9f8788U,
  0x3fa93bf33f96287dU, 0x3ec610033f479dcbU, 0x3f4626bbbe077925U, 0x3ec19b0d3f1baf75U,
  0x3f83e82b3f949598U, 0x3f65d4db3f843b3aU, 0xbf015d183f1a6c32U, 0x3cbf9c783f683b15U,
  0x3f13745ebf8fedd7U, 0xbf96cf79be693114U, 0xbf27cf093ea8f7ceU, 0x3f5a8ce7bf96a107U,
  0x3ef712cc3f2fc3a1U, 0x3f90ac4c3fa02ca9U, 0xbe27dbf23f8f8054U, 0xbf8a113fbf7ccf36U,
  0x3ecf6cd33f12c045U, 0x3f659b343dc95e78U, 0x3f7801f03f81eac3U, 0x3f8cd7ea3f3d3503U,
  0xbe620fcb3f9ecc1aU, 0x3f48cbc83f2276feU, 0xbeedc68cbf890989U, 0x3f7d06e73f10d52eU,
  0x3f32103d3f926171U, 0x3f83e86a3f9427edU, 0x3f4bbc6e3f34379aU, 0x3efd50853ed38416U,
  0x3c7b3d263c0f95eeU, 0x3e0861583c935ef3U, 0x3cc77d153c919130U, 0x3c2283843b9cb305U,
  0x3dad052abd4b1c6bU, 0xbda16862bd401942U, 0xbcae6f6a3dd010fbU, 0xbce0295e3c0b7595U,
  0x3c91fb0abd5b1d43U, 0x3da1e2e0bcf17e4cU, 0x3c0945cfbcd71e38U, 0x3dd3ef58bee0c9beU,
  0xbe12e474be8f8c9aU, 0xbec53d04bd0fd600U, 0x3ee2ad3d3e61fa69U, 0xbe79bfcfbf2bc409U,
  0x3eacedd03e4e49e5U, 0xbe166cba3f08e167U, 0x3e7c5f3e3ed33851U, 0x3e92cff8be54ebb8U,
  0x3e920b063e5799bcU, 0xbed0bbfc3dd36896U, 0x3e9400913e8846bfU, 0x3cf7ccecbe803abcU,
  0x3eaa45193e142ac1U, 0xbf1456d23e940986U, 0x3f124edf3ec08ea1U, 0x3e37323ebe1c6e78U,
  0x3ef294263ed7f4a1U, 0xbe802fb63f1dba93U, 0x3e5f80b83f093728U, 0x3e9308893e957a6fU,
  0x3e8319643e1e2613U, 0xbed181ad3e854504U, 0x3e2c8f473e8eaad2U, 0x3e93a38d3db1424fU,
  0x3ed1605e3da324c6U, 0xbe777e3e3dc768f9U, 0x3ea2f3ae3e7dd52bU, 0x3df363233e6f6bbaU,
  0x3e992f433e8a1f98U, 0xbcb601f93f39f9d4U, 0x3f4eb3cb3f6de5b0U, 0x3ed09744be62fc59U,
  0x3e1d7be83cb0d275U, 0xbf1572533e849371U, 0x3f7857b93f515d68U, 0xbe07cbbcbebf65adU,
  0x3e717d2dbe43a28cU, 0xbf55e4a03e153f15U, 0x3f8c451a3f3e8827U, 0xbded8f82bf193ffaU,
  0x3ef79a483e7bba02U, 0xbf688bed3ec5db91U, 0x3f0f870d3f19673fU, 0x3f049adb3f1845a6U,
  0x3efdd0913e5aec08U, 0xbf8101233e8b30faU, 0x3f06e67b3edbee33U, 0x3e80bb6c3eeb44d7U,
  0x3ecc99813ed29797U, 0xbe0f7a443e94dae1U, 0x3f37936c3f367a5cU, 0x3efb494f3f13e397U,
  0xbf000f77be32605cU, 0xbf31a0aabf345dc4U, 0xbf49a5f5bf45c3a8U, 0xbe22e74d3ea61bceU,
  0xbeed6f6cbe93a153U, 0xbeafece2bedfccacU, 0xbf36855cbf19271aU, 0xbd76b9fd3ec698bcU,
  0xbe2eaeaabdc44a1fU, 0x3c8723ebbea2d9c5U, 0xbeb22267bece76dcU, 0xbd8596833eee9914U,
  0x3e885a853eb16316U, 0xbe0e633c3e58a0b1U, 0xbde82d30bdad5e00U, 0x3f06b99f3f4f6620U,
  0x3ecf10793f479a94U, 0x3d07414a3eb6670dU, 0xbdcc93733e6b5a3fU, 0x3f3d2f2b3f6a4cb7U,
  0x3f5015943f3a88a8U, 0xbd96ee8c3f0bc795U, 0x3e48fc463ed85478U, 0x3f3e68933f69e52dU,
  0xbf1621e3be819235U, 0xbdc3212dbe354cd8U, 0xbf01a07bbf12584dU, 0xbd881b113e30337fU,
  0xbdaa4e653e096852U, 0x3d134164bea02780U, 0xbed89b81bf03eba5U, 0x3deb17fb3f0aa5c6U,
  0x3f13e9543f06f1e0U, 0xbe9c10bb3e33b902U, 0x3e0b592c3e275653U, 0x3efb5caa3f8c4ef0U,
  0xbf4bea04bf468603U, 0xbca102b4bf4cdbbcU, 0xbefda308bf136ec2U, 0xbf449dc4bedea79bU,
  0xbed323ccbf02cb54U, 0xbe3f2d6dbf1ced21U, 0xbeb95bf7befe9c28U, 0xbef669a83e1ae840U,
  0x3ea4506f3e2bf391U, 0xbe4673063cd08648U, 0xbe4a8042be19e371U, 0x3e3b98ab3f2515efU,
  0xbe52c38b3d882132U, 0x3ebbe7bcbdc0db8dU, 0xbebbd13abf05e8baU, 0x3e3def7ebd64aa78U,
  0xbf19c673bf1a1bcdU, 0x3f375b97bea2d04bU, 0xbed405f1beac4774U, 0xbd570288be55ca3eU,
  0xbda4fa04bef8fb50U, 0xbea53c85bed0de95U, 0x3e1a2787bba312cbU, 0xbef1d406bda8fd14U,
  0xbe96ff5abf0dd9e7U, 0x3e890009bd5ffddaU, 0x3ea111463e94a952U, 0xbea8c88cbf0e912eU,
  0x3e4fce75be829fceU, 0xbee9501e3c88a78fU, 0x3ef1e1043ecc35e2U, 0xbea84445be54b522U,
  0x3ea7f9f63e16fc2eU, 0xbe23532e3e723983U, 0x3f36a5373ebba01eU, 0x3e7f9914be33d417U,
  0x3eeeaec83e83dcc9U, 0xbe9d849e3f029d8eU, 0x3fa412583f7703b2U, 0x3da4205abe25e88fU,
  0x3f0025f93eb835c5U, 0x3e88749b3e387549U, 0x3f656f923f004d65U, 0x3ed01aaa3b7fbd89U,
  0x3eb71b273ed37302U, 0x3f81a6f03e81da8bU, 0xbb5c9c3fbe35f142U, 0x3f05ba193df9647eU,
  0x3e5fa9e53a09b512U, 0xbf377ef7bba0fd55U, 0x3d29cd94bdf7f1eaU, 0xbe717ea63e8c31afU,
  0x3ec67a913e8ccef2U, 0xbdc67fb63e94506cU, 0xbe0b3b283ca86497U, 0x3e7b25babe0b06dfU,
  0x3c444a713d8b9450U, 0x3e9f47b63dbe9775U, 0xbe37f13abc98276bU, 0x3ea4c1eebf286acaU,
  0x3efd4bd83e6a92acU, 0xbe66797e3ebbbbf2U, 0xbe48cf883deb5dafU, 0x3e366ebb3e8885a3U,
  0x3eb12e633eb49d7cU, 0x3e8066c63e3f0006U, 0xbe65bb0fbdb19874U, 0x3ef066f2bdad4d7cU,
  0x3dbd99eabd13b777U, 0x3f04d9003e15fcd2U, 0x3d01accb3e0c617fU, 0x3e51bb15bedfc60bU,
  0x3eca6e603eede311U, 0xbe04ceea3ec210c9U, 0xbde659c53d538b44U, 0x3e938f603ecabce6U,
  0x3ed44eb03ed9157bU, 0x3bd948ef3f0feb89U, 0xbdd120ac3e8c4578U, 0x3ead44ff3e2417ccU,
  0x3d011e3ebc971443U, 0x3e09ef8e3e07f28dU, 0x3e042c603db1c7d4U, 0x3ea95537beb5d7beU,
  0x3ef937973e24b0bbU, 0xbf4279493f171669U, 0x3f3ad2503f58bdd1U, 0x3e8979f3bda85c4fU,
  0x3eaed9f63e8c42d3U, 0xbf24633b3e850368U, 0x3f1175713f0d2486U, 0x3e2a106ebe0550b5U,
  0x3e81762f3e83a570U, 0x3de1db0e3ed69828U, 0x3f20278f3ed93ed4U, 0x3e8cdd8bbed456e0U,
  0x3d44c2b53eb7d20bU, 0xbed29246bcad65dfU, 0x3e2546bdbddb8c75U, 0x3e9656873f1590e7U,
  0x3e99f0d43dd7acb3U, 0xbed4e5e43d0d6dd2U, 0xbde431ffbe1eef8bU, 0x3ebc95033f371744U,
  0x3e87a58f3ead7202U, 0x3a9bb8253ebc6629U, 0x3e46ea433eedf7ffU, 0x3eb762023e95beeaU,
  0xbf0d3570bf189c42U, 0x3aa8d588bf3b7e62U, 0xbf29e638bf27f966U, 0xbef2d6dc3db79292U,
  0xbded24e0be1abd8cU, 0xbeca4378be329614U, 0xbea330bbbeb86b58U, 0xbe3dce8d3eed5edfU,
  0x3e8a0a583e3d2487U, 0xbdccb3be3e6694d0U, 0x3dd2f8223e8b8793U, 0x3e6fa0213eaf6da5U,
  0x3c132b8b3cf1d4a4U, 0x3e9120c13e772c90U, 0x3e8185043e66e9d2U, 0x3ddcf648be96ba79U,
  0xbea4c58bbe2d93a1U, 0x3e34b70ebd191eb5U, 0x3d84a870bdc77de2U, 0xbdca3b31bede57ebU,
  0xbeea3b54beb67acdU, 0x3df4dd9abea34573U, 0xbdafffb6be4a42c4U, 0xbe899085be811582U,
  0x3eb5e26a3eafdbfdU, 0xbeade6003f174d8cU, 0x3f48bb3e3f4d1ccaU, 0x3ebbd3173e5760eaU,
  0x3eca39e13db99beeU, 0xbed166a43ef516a5U, 0x3f5209ce3f511282U, 0x3d31af56beaccb1cU,
  0x3eb202f5bdf805a0U, 0xbea034203e8ec8e6U, 0x3f45a5ee3f39e5c4U, 0xbe555c5bbec16dacU,
  0x3df118033e1ab6e6U, 0xbed3cbc23e4b3f8aU, 0xbd266319bd0b1f03U, 0x3e05bc7a3f42b3daU,
  0x3ec589f03eafcd0bU, 0xbf1764b03e075373U, 0x3e6040c33eb15dd5U, 0x3d8bad293f5e1599U,
  0x3e724d133e97a8bfU, 0xbe7c70f93eb1795aU, 0x3f18a5733efbb852U, 0x3e23400e3f06f8d7U,
  0x3f1172a63f08e878U, 0x3e0ece623ecb99abU, 0x3eaa38043eb3a4e0U, 0x3f189b1e3d371cf1U,
  0x3efe3ee63ec762caU, 0x3e2494623f1747d0U, 0x3e7f4bdf3e946c28U, 0x3ec60a2c3ea43ab2U,
  0x3ea28e7f3f1a94d7U, 0x3ed9159c3e5faa5eU, 0x3e91f69f3ecc0151U, 0x3f2af9673eb1be84U,
  0xbb96bc5d3eb05464U, 0x3eabef473e9fc9b4U, 0xbf1222ce3a050167U, 0x3e61dd8e3e8470dfU,
  0x3d8568993eb0e1a1U, 0x3e9a465e3dd879efU, 0xbee4ff16be16e803U, 0x3de70bb33e96fd8eU,
  0xbe9976d73e0251a0U, 0x3f35866dbe6bd456U, 0xbf4615f1bf3437a8U, 0x3c9cb507bbd15515U,
  0xbe9de2a7be7ef74bU, 0xbdd8ad18beaed248U, 0xbec7e04bbed795ffU, 0xbdb71947be078893U,
  0xbf400b03bf0c0448U, 0xbdd33d6ebf2d88baU, 0xbebb55a0bf1f0874U, 0xbf0758d5be38f553U,
  0xbee65a35bf1ab477U, 0xbd9c37a5bf06fd32U, 0x3c35e811be0968a3U, 0xbea8d88ebe979545U,
  0x3dcbb12e3daa0f5aU, 0xbcf8c8cf3de09b49U, 0xbda5c059bdb9102dU, 0x3cb514a6bdd95001U,
  0xbd1b3784bc97c005U, 0xbe6e40853e6741cdU, 0x3d85e07a3debf914U, 0x3bb7b426be87c6d9U,
  0x3e9de68b3e6e6d07U, 0xbe60a08d3e869631U, 0xbc2719933da54023U, 0x3ded7e66be62ba70U,
  0x3e3696c43e379792U, 0xbed5df333c1e3179U, 0x3cac7a27bcb35a65U, 0xbb431a0b3e0ff190U,
  0x3d20e02f3eb85e0bU, 0xbea67786bcee082cU, 0xbd48f0123dbe46e6U, 0x3df5c428bd3362d3U,
  0x3e7867233e50189fU, 0x3ed8006a3dfda6bbU, 0xbeb318b7be41c911U, 0x3ea4b895befdec27U,
  0x3da6cc6d3e2518a3U, 0xbe6d4f7f3e15784bU, 0xbe831d1abe0f4b38U, 0x3e5a50d93eb3521fU,
  0x3ee596393eb6f491U, 0x3ee00ac33e9f9495U, 0xbe5c8840be1c93a2U, 0x3e3c553b3e103b69U,
  0xbe5dec393da8921fU, 0x3f4824d23d2e76beU, 0xbf2c6307beada27eU, 0x3da19ceabedbf25cU,
  0x3ea468ae3e8751b6U, 0x3dc186463edc3397U, 0xbe8f9d6ebb1a859aU, 0x3eab93fb3e0b0e2bU,
  0x3db2786a3e05ac8eU, 0x3e5ffc953e6a699aU, 0xbdb780e03db4a81dU, 0x3e7b8770be32c46aU,
  0xbe6342a7bed30cf4U, 0x3e004b61bbdf2f1eU, 0x3dc2be5d3d6480a0U, 0xbec5206ebf101f2bU,
  0xbc90d4633cd798a6U, 0xbe6aa4f13ea176a2U, 0xbe27b2153e8c0de3U, 0x3e3f8c0d3eddc46cU,
  0x3eab981b3d1f6055U, 0xbe298d353e952ad6U, 0x3ec416f83ee2276aU, 0x3e15bce83da24bb3U,
  0xbd90ce3cbc85202eU, 0x3d1bc7093e54bb3eU, 0x3f0c87443ed506e3U, 0x3cca0923beeee0f9U,
  0x3e4320333cf90c11U, 0xbf7b0ae93d9d3897U, 0xbbdd41733ddeae71U, 0xbcd4cd033efac24eU,
  0x3ec5f2803e8c753eU, 0xbebe61353dc69a6dU, 0x3e12f2803e35a79cU, 0x3e28463b3e34eb56U,
  0x3d8fd9793e28829fU, 0x3ca2ea5c3e8fd09cU, 0x3da707ed3e8c0bb9U, 0x3e9164853e5a5cf3U,
  0x3c4d15103e709a79U, 0xbda3a2ba3e7f1225U, 0x3ea2da183e470ceeU, 0x3cd9ac44bec7b194U,
  0xbd3de844bdb0d6a9U, 0x3e3daf653d9f9d57U, 0x3e9757e73ea5c928U, 0x3e428854be966d28U,
  0xbcf727c2be9acf1fU, 0xbd93ca9a3e1b05a6U, 0x3f14452a3f06a4eeU, 0xbdf222adbee92861U,
  0x3e057d7b3ecd5330U, 0x3e3393ac3ec4dea1U, 0x3dd670373d5c03a5U, 0x3e85361c3bc3dc83U,
  0x3e0c3dbd3e267549U, 0x3d44e7373e78e21dU, 0x3e9c35b73e59b4f8U, 0x3e7d99893ac4f9cfU,
  0x3ee771813e9d4cc8U, 0xbe6df3493e85fccbU, 0x3e8e6d143ef08a0cU, 0x3e8fcf4f3e5e1801U,
  0xbdc39c343ddc8d68U, 0x3ea2aeda3e55cbc5U, 0xbea41709be465b18U, 0x3ead4b343bd8a4eeU,
  0xbdebd26ebe66e491U, 0x3d6c361bbe8e8e65U, 0xbf452a96bed0cba2U, 0xbc4746aa3e2b3c0bU,
  0xbece8ed8be2e2fdeU, 0xbd999d8abec9d0fdU, 0xbf19020bbf21ba49U, 0xbe3c70e13e8bab5cU,
  0x3e25d04dbe85257aU, 0xbe3691103e3a52e8U, 0x3ef62d8d3f1eeb64U, 0x3da3725ebf2a5675U,
  0xbdf175d6beba8c9fU, 0xbf331941bdbd708aU, 0x3ed1508d3eac5ea3U, 0xbede46acbeab50ebU,
  0xbe733792bf06e904U, 0xbf0f469fbdf884e0U, 0x3f07467e3e920eb0U, 0xbf0b011dbf4babd5U,
  0x3eb42a0f3e055ce2U, 0xbe8b7e163ea453e9U, 0x3f04a8713f375245U, 0x3e9ebd843e35dd96U,
  0x3e88ed393bced2b9U, 0xbecc62553e8ee9a2U, 0x3f4701c43f013cb3U, 0x3ddc0edb3ac5c0ebU,
  0x3e9cd9dfbd19ca15U, 0xbf4441a63eb04c12U, 0x3f0c1d573f39aba5U, 0x3e98b3033e0de2ecU,
  0x3a5568b53e8c7a97U, 0xbeb760c83d7f4548U, 0x3db24668bdf27e40U, 0x3e449fc93e9e4f0bU,
  0xbd8e43403e10f4cfU, 0xbd143d3f3e42e38fU, 0xbe1fcbdbbd65e2a4U, 0x3ea1ecf23ec87eacU,
  0x3e2ef66d3e1f613aU, 0x3c839d5c3ca67e8eU, 0xbdc8395bbd4f0cefU, 0x3df21ae63f18ad1eU,
  0xbef8087ebf4b3e93U, 0xbec7c70fbf1465dbU, 0xbe687053bed09641U, 0xbf34e34fbe734f45U,
  0xbf0ac696bed6339bU, 0xbf03374fbf3ea53aU, 0xbf2c1d3fbf1534c1U, 0xbeca1eef3e61a206U,
  0xbe5610453d49bb01U, 0xbd4123e6bf1b48acU, 0xbf6214bdbf629aadU, 0xbd2c54353f1ed24bU,
  0x3e738d16bdd9ecc3U, 0xbf03b6253df62030U, 0x3effb2253eccc2f7U, 0xbe135e53be84de9bU,
  0xbd9bc072be08e54eU, 0xbed605923eb8131fU, 0x3ef75dec3eb1c52cU, 0xbee2ff25bef4b483U,
  0xbe8a92b9be7b231bU, 0xbf11e0f53d5bcd12U, 0x3ee8a0293e036d48U, 0xbef6fde3bf003e3fU,
  0x3f04bbce3f148f9cU, 0x3c98a5b33f1b54cdU, 0x3f3d51d03f4136f5U, 0x3edbc9853e34b6ebU,
  0x3f048cc93ea1ce76U, 0xbd50452e3ef36456U, 0x3f55b94f3f4984ddU, 0x3e91916f3e7fd748U,
  0x3e9456e03d4bce60U, 0xbe851d383e9a79b6U, 0x3f4af98c3f327f30U, 0x3ea113533cce9224U,
  0x3e8a26363e27e9efU, 0xbe7ef01a3e52ae58U, 0xbd0469ff3e4e233fU, 0x3e788e283ecbd16fU,
  0x3eb727393ead9aeaU, 0x3f11c6ac3e793610U, 0x3da399a73e15c472U, 0x3e8f26b3bc4dfba6U,
  0xbe8f564d3d139103U, 0x3f1d8411be219f8dU, 0xbe951744bc9393d3U, 0xbdd08f59bf191168U,
  0x3e81ff823e2de046U, 0xbe6dd8b03de2ead9U, 0xbe42b246bd9b4d8dU, 0x3e9b18b63ebc8a0fU,
  0x3e48cee33eb58ba5U, 0x3cf181713eb506b7U, 0x3eb130ef3e2fbf83U, 0x3ea1d45a3ef30947U,
  0xbd4fc6e6bdb4903aU, 0x3e78d3323ece3f64U, 0x3e90e66c3ef792e6U, 0x3dcfbd36bee047c8U,
  0x3dd893febbc18209U, 0xbeb89975bdafb206U, 0xbf136d9ebe9cc385U, 0xbe0ea8d23eaa0eb0U,
  0x3e8b8d1b3ed94cd7U, 0xbf198a673ec297b8U, 0x3ea3c0363ecbc88dU, 0x3e674beb3ecfb9d9U,
  0x3ee4ef503eef7ad2U, 0xbe97082c3ec42b48U, 0x3f48b2fe3f45ac11U, 0x3ea0a8d63e71a220U,
  0x3ed782b73e992700U, 0x3f5afc753ed6ec25U, 0xbdcb95ba3e63dae9U, 0x3ee4af23bde7d2cfU,
  0xbe7a3ab73c4d90d9U, 0x3f67b07e3d89c88aU, 0xbebb483e3c8dd0d8U, 0x3e691df5bedfe55aU,
  0xbe7d379dbe2669d0U, 0x3e7e975cbecd36cbU, 0xbea0b9c4bd422267U, 0xbe871085be48d41bU,
  0x3eb1027a3e96b531U, 0x3f4708923f07a81aU, 0x3ca4f9ec3ec55dc4U, 0x3ef314553df997b4U,
  0xbe6fa9b5bd2f1580U, 0x3f18e5363db521b2U, 0x3e56b0f43e8528aeU, 0xbd4d7b72bedd9aeeU,
  0xbe6d8945be774c1eU, 0x3d8a1dc0be548dc4U, 0xbe64de80be2e978dU, 0xbec5c4ee3d9b901cU,
  0x3e67f1293ed38285U, 0x3e42c5503ef80e8eU, 0xbc970bd23ee7d8c7U, 0x3e9499d63e9e5bc9U,
  0x3e83b9ca3e266e50U, 0x3e4c3d673e46f8e0U, 0x3e5cdc023e9461f1U, 0x3df1b04ebde2342bU,
  0xbd87cd33bd93722dU, 0x3e316efd3e23083eU, 0x3e474b873dd5b04aU, 0xbe492064bd17652dU,
  0xbe6cf074beb13a9cU, 0x3c644d65bea8a5c4U, 0xbe499ccabe9d31f3U, 0xbe2746a9be4081efU,
  0x3e25ec293e171f33U, 0xbf0be4663e9a7a43U, 0xbcaf9a6abd154354U, 0x3ded367e3e72f4e1U,
  0x3e0c29133e82ec7cU, 0x3e30f9c53eb1ce63U, 0xbd8598803e960c79U, 0x3de216d1bdfd8cf5U,
  0xbdf9c39bbcf484cdU, 0xbed26acabe3abc46U, 0xbc7728c5bdd7e3dfU, 0xbd47ce633d6093cfU,
  0x3ebc298d3eca188dU, 0xbe1a45c53def9c3aU, 0x3e40dd703e7b518cU, 0x3e1140513e60391fU,
  0x3e4bbabf3ec07fc0U, 0x3e6c00da3ecb9442U, 0x3d4f055f3e17f829U, 0x3e75ad9fbeae60a0U,
  0x3e723efd3dacbcffU, 0xbe6de3e63e801d75U, 0x3d7df48c3d83661bU, 0x3e7bd3ca3dabf02eU,
  0x3e900e0b3e9c7c9cU, 0x3e36ce043ed5b4adU, 0xbe5b77ac3c51258dU, 0x3ef30c633e4aa059U,
  0x3e5f84eb3e401831U, 0x3ee1df273ef93df5U, 0x3e3d80d33e47bd5eU, 0x3ea49519bd8ea9caU,
  0xbeae9bedbcf8b51fU, 0xbddab5e83da86d60U, 0xbe908360bd9c5a65U, 0x3e484979be6ddc7cU,
  0xbeb40304be2460bdU, 0x38e8ebdebd86e822U, 0xbe40c9123e9599d8U, 0xbe26c805be10c3a8U,
  0x3d6594babcd7a920U, 0x3da160303d9b0ce7U, 0x3c0de6c43dc399bfU, 0xbdec9206bdb661fcU,
  0x3e08ba493e717ad6U, 0x3e2d7472be009184U, 0xbc4fb05cbd13d078U, 0x3db490503dace3b0U,
  0xbda264cebd22c858U, 0x3d445d453e30ac45U, 0x3dc21272bcc81fd0U, 0xbe8e6f8fbe2856b8U,
  0xbd8ca6e93e0fc693U, 0xbcefb09d3ce698b2U, 0xbd9e518abdd20d5cU, 0xbc7741393e8c0a3bU,
  0x3ceea0efbdd32b2eU, 0xbd37c144bb32b602U, 0xbd4b67423c20634fU, 0xbe1e8fc9be56ae11U,
  0xbdf0035a3e9bec92U, 0xbdc7787dbd518ca1U, 0x3d0b350abd26c1b0U, 0x3df50cab3eaf9ed5U,
  0xbe6ae5a4bd25f916U, 0x3d26c966bd657eadU, 0xbd538dfc3cf60f33U, 0xbcc3b856bdee6c86U,
  0x3c91c3183cb026ffU, 0x3d2e9d7c3d8d671aU, 0x3d2f67e7bd50e5f0U, 0x3df7092e3d38e1c7U,
  0xbdd540893da54274U, 0x3e1abb0dbe057d76U, 0x3d63f61f3e3154a0U, 0x3e11958b3d49863fU,
  0x3dfcabae3e7adac9U, 0x3d9787723e796be7U, 0x3e325999bca19f57U, 0x3e9ecfcd3ccc386cU,
  0xbd3e8c983d6b5680U, 0x3d147eb93e3a65ecU, 0x3e83a5ffbd646850U, 0xbe6fb9bf3d053136U,
  0x3dc060f9bdf5bcd8U, 0x3c29ce87be8b0a22U, 0x3e13de1bbde13ef4U, 0xbccba610bc1faebcU,
  0xbe1f90f13c6932f7U, 0xbdd9b029bbcc636aU, 0x3b6932e23dd5563aU, 0xbf203a41be1d3e80U,
  0x3da5e738bda7b5ccU, 0xbe7f3344be96793aU, 0x3dee67c6be930fdfU, 0x3d96450d3ef62f9bU,
  0xbe840a4c3c71e37bU, 0xbd2f8a9dbe8037ccU, 0xbdf12c2a3da3b983U, 0xbf271a4d3e760447U,
  0x3e72f0d0bcc6b1f9U, 0xbd661225be0d18eeU, 0x3e139f80be998e59U, 0x3d03d8303eaac1c1U,
  0xbeb5024dbc880cbdU, 0x3e6f99abbeee5225U, 0xbe6184ef3e35b849U, 0xbd39f31dbce7cb01U,
  0xbcfefc4d3e2db5d2U, 0x3d4b547ebda398a8U, 0x3d623afdbdbfbfb9U, 0x3e1d04653e952eecU,
  0x3d07813a3e082140U, 0x3e5519d9bd441620U, 0x3de0fa8d3deca8ebU, 0x3ec7648bbbc5bfbeU,
  0x3a9e02b83e0ea852U, 0xbd3073be3e820838U, 0x3d0dd05ebe1c81cfU, 0x3e38c79fbda30f1dU,
  0x3e39d2febcc0ccc7U, 0xbd1201733e580141U, 0x3e6d66c9bd74ebb2U, 0xbe6246313c8d2406U,
  0x3dccedaabe31927dU, 0xbd3977483c69b0c6U, 0x3e11e3953d952bc3U, 0xbccb1f88be62b601U,
  0x3e9219723de9b509U, 0x3c5a19133e20b3b4U, 0x3c6a4df1bdaba4f8U, 0xbd89e21c3eb89758U,
  0x3da4c94abe68a393U, 0x3d5541233e991517U, 0x3db2f7c63e131271U, 0x3c9e8a963e277e44U,
  0x3e1c14083dd806bfU, 0xbda7fb9c3e99a5e2U, 0x3e84726bbd4bd146U, 0xbe2168a03e976ef0U,
  0x3e8cbb0e3e3851e1U, 0x3e081c783d08815eU, 0x3e6cff05bdce84c9U, 0x3df7163f3e0a4ab4U,
  0x3e1694583e31d43fU, 0xbcb5fd4dbe6c144eU, 0x3ca1dc7f3e021e57U, 0x3e4de12a3dcf81e4U,
  0x3c02c6f93dea11efU, 0x3d5f698e3e6a9ff8U, 0x3d4f0db1be0948b8U, 0x3de641da3e72ccc0U,
  0x3dd50544be03b6b2U, 0xbd3749ea3e576004U, 0x3d6ef681be176adeU, 0x3eccd07ebd706cffU,
  0xbe0455883db7cb99U, 0xbe80605fbcb7cecaU, 0xbe708982be8bd17dU, 0x3d3de7fe3d2b8366U,
  0x3d01100ebdf1e16aU, 0x3e28a97e3e282c81U, 0xbd33a479be807c67U, 0x3e9964813dc2a1bfU,
  0x3c57d5fd3e1e3844U, 0x3de429d2be8b619dU, 0xbe9adb763e1b3d22U, 0x3d173ba1be93b60dU,
  0x3d921d11be8f4dcfU, 0x3ecdb18a3e3db8f4U, 0xbd0a33cabde93a87U, 0xbb3fdfd4beb573beU,
  0xbe4df7a23c6cab1bU, 0xbe1044a23cc7b40bU, 0xbe1e0a093ddf986bU, 0xbd9ff8fbbee4c99cU,
  0x3d7c37b0be16381dU, 0xbe52b5e73e1fd065U, 0x3e5b7af83e82106cU, 0xbda5fd1cbe509cddU,
  0x3e32657f3d98f9e8U, 0x3c2183533d0f7877U, 0x3d506f99be56f6c8U, 0x3e113073bd3f003bU,
  0x3dc66c793cec3599U, 0xbeda8c43bc73b47dU, 0x3d22c363bd054a4eU, 0x3e1d4f31bd3a8daaU,
  0x3e28a94f3d810bb7U, 0x3ddcf38a3d863909U, 0x3dad7f71be3d340bU, 0xbe407c003e4085e4U,
  0xbe2ec20cbe7373d5U, 0x3c0657813e526318U, 0xbdd1edf7be902572U, 0xbccbb00dbdb0af53U,
  0xbd0e2f22be61d86cU, 0xbc9fb758be727e43U, 0xbe7d572dbe0f1e01U, 0xbdf4c02bbc984b3fU,
  0xbcf90a1c3c989ddaU, 0x3da9d9793a8bb44aU, 0x3cfc19ef3c6075ddU, 0xbed640cdbdf015c4U,
  0xbe2ad9f43d1346a4U, 0xbc15de0e3da133d6U, 0xbd2278f1beb4fda5U, 0x3dc72d2fbe580d47U,
  0xbe751554be2d39f7U, 0xbe0b73d2bd8a8176U, 0xbe7da2563d826488U, 0xbf1f8abdbe158161U,
  0xbe7f6d7f3d0d72b3U, 0xbeb03ecebe1b7705U, 0xbde78865bedc125cU, 0x3d1ebf3e3d89e496U,
  0xbe6fba92bd87c114U, 0xbf0ba76d3d479c5dU, 0x3cbc85213e371595U, 0xbeab205bbd30f486U,
  0xbd2449febdff7439U, 0xbea7153a3c82eef6U, 0x3d4cbef2bf01f7ceU, 0x3e3e5ec03e70d4f9U,
  0xbde751243cb3f9bdU, 0xbde522b6be2dd880U, 0xbe971c51bb81e0d2U, 0xbe46b61c3e2defa8U,
  0x3d60aac4be101ee5U, 0xbcafd380bd77c09eU, 0x3d73a325bea3dc84U, 0xbdd5f64f3e3a74fdU,
  0xbdd25dbe3c4b53a3U, 0xbdaf4d57bedc888cU, 0xbed00fafbe084cc9U, 0xbee6d4d83d1fd6bcU,
  0xbd72b378be72eb1bU, 0xbe07e4aabe9d325cU, 0xbe0cb221be960913U, 0xbd0edc38bdc3555dU,
  0x3dbfef8f3db4af31U, 0xbd0f11af3e115c7aU, 0xbd3964d13d14a371U, 0x3e7c94b43d9acf71U,
  0x3a9e1f81bd3c2a92U, 0xbcc5ada73f02412aU, 0x3e0e29533e11dc17U, 0xbc32aae7bdb04db5U,
  0x3e4f14ce3e32ae01U, 0x3ea46df13e5365f7U, 0x3e68345f3dfe2051U, 0x3e032abe3ed59d2dU,
  0x3e8984fabe0605afU, 0x3e6b0cb33e42a4a3U, 0x3e8a0fa83e4da8bbU, 0x3db6ca88be3bc1c9U,
  0x3e1505003e64d880U, 0x3e195fbabec262ebU, 0xbd0c9a113e69bd38U, 0xbeeb04693e952673U,
  0x3e80c74e3e096ae0U, 0x3e8fe76bbe332192U, 0x3e19f7dd3e6ee08cU, 0x3e60ff8f3e42c211U,
  0xbd2443073dc2f08aU, 0x3e2a093fbeb57099U, 0xbb8dd0873e33d3ebU, 0xbea87de13e03979eU,
  0x3dec07793e174addU, 0x3e3dd5e23dbc312eU, 0x3de54db23e1bcc35U, 0x3d95d32e3dbfa3cfU,
  0x3dc03f8dbd6a3ca2U, 0xbe35e966be73093cU, 0xbe801519bd07de0eU, 0xbd4e11073e6a7788U,
  0x3d09478a3d51660cU, 0x3d890ebfbd2afb9dU, 0x3c00a5b73d7dce97U, 0xbcb605373db646a9U,
  0x3e59edefbdfac5dcU, 0xbddda7b13dda6fc8U, 0xbd8eaa49beb0be25U, 0x3f07ef253da45ee4U,
  0xbe16435dbe106c4cU, 0x3e2d90f03ee204c9U, 0xbcc1cb7b3d8b6304U, 0xbe4a3d86bb88d771U,
  0x3eb1f9613dc8e891U, 0x3cf02f0f3e06193cU, 0x3d9fcb903ba98bcbU, 0x3e62d3b03d05025fU,
  0x3d1c49303e40a73bU, 0x3e8d9bcb3e80c8e4U, 0xbc62968dbc84b920U, 0x3dd2d78dbee21bedU,
  0x3eb0ef573dcf7d4cU, 0xbda26c1e3ea29051U, 0x3eaa9cd4bdea00a2U, 0x3ed24ba23da685bfU,
  0x3d8485613e931cddU, 0x3d4ffc9b3e653546U, 0x3d093f95bca5b189U, 0xbcb6f6afbe469ba8U,
  0x3ea1256d3dd10ec2U, 0xbea766be3e9bed26U, 0x3e3e0e3cbca0ff17U, 0x3e88bba8be0115d0U,
  0x3cb32c173e0029bcU, 0x3c5122843e5cac4aU, 0x3d8febe3be59a1f7U, 0xbd8fb6a0bda87018U,
  0xbe12fb0ebe32827dU, 0xbe8edf47bd800374U, 0x3d4aba5b3ae4bbaaU, 0xbdb8678fbd9c0797U,
  0x3e01a7e13e4b5c73U, 0xbd4d14df3de12ad4U, 0xbd291b11bebffcb9U, 0x3d9be17a39796f93U,
  0x3dc7c623be86e6b9U, 0x3e0f76533d6ed173U, 0xbd83a9a0bf0ff487U, 0x3eb6246ebe42639fU,
  0xbe7db91bbe12ec86U, 0x3e5f0ab13dca6871U, 0xbecf1aa23ea4dd46U, 0xbea7933ebee530a2U,
  0x3d8f8803be5e2a58U, 0x3e2bf3f63dff4ea8U, 0xbce7b821be5f6dc6U, 0x3ea8d8fabe281d69U,
  0xbe8b5e233e16a54fU, 0xbe00ad8ebe4b5269U, 0xbe9869c33dcc438aU, 0xbdd9c8cabee31be2U,
  0xbeb39e35bde88140U, 0xbe0eb1ad3d28043cU, 0xbdd5fb553ddd09faU, 0x3df3f914bea5caccU,
  0xbdedd0b2bd6b8ff3U, 0xbe6dc788be650405U, 0x3d939dfdbe3be253U, 0xbbc791e43d481905U,
  0xbe94a4753cc1138dU, 0x3e444f653e0daf95U, 0xbe6cc79dbcdb1c60U, 0xbde809f5bdb2c8a5U,
  0xbdd664c7be35a7b8U, 0xbe3a741ebd72795dU, 0xbdb2057cbe1ce123U, 0xbdf7d7f53e0b3542U,
  0xbe503126be373f87U, 0x3e015ccabe1e3dfbU, 0xbe8d1a663dafe684U, 0x3deef297bd084198U,
  0xbe057f6b3df27186U, 0xbec79895bdf82261U, 0xbdebfe193e11cd69U, 0xbc81ce50bd5cc922U,
  0xbe44312cbe60bec8U, 0x3e9e6c86be0472faU, 0xbe9c22bebee5641aU, 0x3dfc549ebe4c8b27U,
  0xbe96c7c9be21e644U, 0x3e30549dbd9d1093U, 0xbeff4df43c0a0a10U, 0xbe9a5f7cbe9bc10aU,
  0xbe845b1dbe101318U, 0x3de19c3d3d6484cbU, 0xbe13c5bf3d42764cU, 0x3e136ad2bea43438U,
  0xbd9d802b3e0354dcU, 0xbec672bcbdef566fU, 0xbe1c10be3c0a9544U, 0xbd7780a6beb851afU,
  0xbe03fbf43ca0931bU, 0xbe73ca08bdd0d4cbU, 0x3a095b543e0be878U, 0x3d46bf1dbd00bc9cU,
  0x3ddf5d623d3dd950U, 0xbe347ed73d89b093U, 0x3d718234bdc5b7c3U, 0x3d3a17b93dbe3f10U,
  0xbe21dd593da6fdc0U, 0x3daac116bba55fe6U, 0xbd8d823e3c927b93U, 0xbdcb3b9a3e73aa26U,
  0xbd47b221be3746a9U, 0x3e29c6dd3d4620a2U, 0x3c99f1873d2f7b14U, 0xbdbfdb783d85075bU,
  0xbc515f163d2cd9f3U, 0x3e93c7af3e68a979U, 0xbd84fd51bbbaa37aU, 0xbe3501573e82fee0U,
  0xbda9224abd239dc3U, 0x3db918a8bc917176U, 0xbd8d9d343efe1664U, 0x3d8d58ba3c1d8882U,
  0x3d59ad7a3dc9da6eU, 0x3ef18bbbbe5944ebU, 0xbdd716f33e8c12d1U, 0xbef9f08d3e3bb706U,
  0x3e4345fa3e1b925bU, 0x3e027f78bc53775bU, 0xbc0d91273e388434U, 0xbd2300a43f045739U,
  0xbe47e06f3e163acbU, 0x3d5d39a0be697b24U, 0xbdea0df23e088af6U, 0xbe9f223b3d5e70d3U,
  0xbe20fcb5be1804bbU, 0xbbe95e74be7e9547U, 0x3c4ed014bde9b0c9U, 0x3cf056843eb7a30fU,
  0xbe4149353d3d93c4U, 0x3d54b38abcaaa065U, 0xbc3e88713da230ffU, 0xbe7f16a7bce26624U,
  0x3d9ef72a3cec2128U, 0xbe012169bcdcfefeU, 0x3d15b11dbe1689a2U, 0x3e0317453e29ed58U,
  0x3db729733dc07e68U, 0x3e00afac3de4ab1eU, 0xbd20853dbddf1162U, 0xbcdb090f3dad38fdU,
  0x3e217ba13df4678eU, 0x3e7cfe183cc99e14U, 0x3dfa5172be84cb96U, 0x3e0cc47a3e3c5ba3U,
  0x3d639ed73d9b662bU, 0x3bf0fe5a3de631d5U, 0x3e0cb1cb3e281d56U, 0x3c89f73b3e40b604U,
  0xba0a7e67bc83954dU, 0x3e9e44d83e21382dU, 0xbc33fd1bbd88232bU, 0x3d4b93023901ca10U,
  0xbd3129743b32312fU, 0xbd2069873e2614d9U, 0x3e0fd5dcbcb8ab1fU, 0xbdde88af3c74d26aU,
  0xbd9e73c23dc3f9e6U, 0xbe153516be14ae6aU, 0xbe004919be5f83c8U, 0x3d98e9afbe144f4bU,
  0x3cf721edbd9b534eU, 0xbcc47d193dac3a90U, 0x3d47e4363e120c36U, 0xbe011fd23c073b93U,
  0x3e1b675fbcaa7936U, 0x3dcfb3afbe0e6665U, 0x3d4425c9bd372e0eU, 0x3d63e0e43df9628dU,
  0xbdb77b7bbd433318U, 0x3daf47e83c8a18c9U, 0xbd26dda93ded7050U, 0xbe01eae73db39039U,
  0x3b5b51753e09c795U, 0xbdd17777bc3b0764U, 0x3e3dd1f2bd0a04c2U, 0x3e62bcc93e6500dfU,
  0x3de863ed3ba076d7U, 0x3df2173ebe991a0dU, 0x3d75f07a3d3078d0U, 0xbdc600943d177aaaU,
  0x3dab62b73cdcd190U, 0x3d4bd5f83e282e27U, 0x3e1e60fe3dd44720U, 0x3e47a1c23e183139U,
  0x3df913d6bd458250U, 0xbd63046fbc6c80ecU, 0x3e86efd63e20ce35U, 0x3e1d7938bd932449U,
  0xbd1056dd3de63085U, 0x3d9b954a3df73d5bU, 0xbda126ebbd05c25bU, 0xba5ecdae3c75a963U,
  0xbd32bb97bd8a0789U, 0xbd80d2453ce98d0dU, 0x3db2d7483c0df8feU, 0xbe0f4ac4be06ed10U,
  0xbd91fbd7bd28cb2bU, 0xbd7a66abbe353f4cU, 0xbdb4ed14be77c706U, 0x3c87ec04bdaae958U,
  0xbd577e2cbd9892f9U, 0xbda760933c7e909eU, 0xbd35f256bbf540bbU, 0x3e4b22163d001cc0U,
  0x3d3aa87a3dc185deU, 0x3cbe60eebd08325bU, 0xbc587e09bdbbdafbU, 0xbd4660603da4595bU,
  0x3d97995cbd5ca60fU, 0xbe61ac533c0c394eU, 0xbd058f033e444e65U, 0x3dbfcb0bbbd9323cU,
  0xbd303cc53d8f4e35U, 0xbdcf4c3b3d38d265U, 0xbdcf0302bdb389a2U, 0x3db3ec9c3e02bf7fU,
  0x3e2310053dd6f86eU, 0xbe55205e3e19d68bU, 0x3d519eb33e137e48U, 0x3e27b153bc3f89f9U,
  0xbcf48e1fbc942405U, 0xbd1a2da33e3e5927U, 0x3e099c853e102be2U, 0x3d8928743d7345d3U,
  0x3db099593d2a5a9cU, 0xbe3758033ec388fcU, 0x3e0cf893bd2d1ecaU, 0x3e1aa89d3dbe2c5cU,
  0xbc36e54abe016346U, 0x3d89e01fbdbff73aU, 0x3e65c7943df67d5dU, 0xbe67d2e0bd4e1ea4U,
  0xbe9483c33d3ad001U, 0x3dba9c1bbdadf625U, 0xbbcb63e23df26169U, 0xbedfb3a5be050e7cU,
  0xbe502fb23e571e10U, 0xbdf877cebf19e3aeU, 0xbdc288d0bebbae75U, 0x3d93cbf8be77f566U,
  0xbe8da00bbda4fe0bU, 0x3de48ba0bde32d55U, 0xbdb32c583da14dceU, 0x3dd3b2fbbe53afffU,
  0xbe0d6bfc3e1f0991U, 0xbdbe92f6be669313U, 0xbde68563bd15b395U, 0x3e49afb6be7cfd15U,
  0xbe88d24bbdcc9140U, 0xbe85c021bdd09582U, 0xbe23244e3e15c72dU, 0x3d166698be62f096U,
  0xbd82e8ac3db9cb2cU, 0xbea9e6fabd5a7d69U, 0xbb2974a83cc51514U, 0xbd62ae5e3dca8724U,
  0xbe32b25ebd3d6eafU, 0xbe4fb29a3e49f7d4U, 0xbe3ceeb7be4d9abfU, 0xbd81fc8abe654090U,
  0xbe068dd5bd8e2914U, 0xbe531b71be425cacU, 0xbd37a6abbd73405fU, 0xbc81db133d15fdadU,
  0xbdab51bebd14e643U, 0xbdad76713e4fa6c2U, 0xbd9fba88bdd7fd23U, 0xbf09eba53cf4c6d0U,
  0x3d51289cbc808890U, 0x3a0d31323ba77218U, 0xbd7697363ca55132U, 0xbe052181bdba24e5U,
  0xbe3d3a21bc8feb55U, 0x3db1f325bd2101c1U, 0x3cc402243e816253U, 0xbefd5c11be14e5a9U,
  0xbd8773f83e380fb4U, 0xbea7ee85beeca048U, 0xbd976eb6bf16094eU, 0xbda170903dfd2c21U,
  0xbe858356bdc42d50U, 0xbd8d4f0bbdda98e4U, 0xbcbf7d223e855f66U, 0xbe585c26be1c2a62U,
  0xbd1c38bd3e9ee8a9U, 0xbed0f9f5be96ea6bU, 0x3d4002efbf479d64U, 0x3e892a3b3c82a616U,
  0xbe7153b23e0465d6U, 0xbddcd3ffbe9cb0bbU, 0xbddf49733e73fbe3U, 0x3bdd062dbe3696b6U,
  0x3e1b90a53d0f17f3U, 0xbe50a6973e84b9d6U, 0x3e13b8c0bec2e539U, 0xbc30ef0e3e91736cU,
  0xbd1045103dbd2970U, 0x3d412337be478a33U, 0xbe372dae3da485dbU, 0xbd9e54cfbcb0c4a7U,
  0xbd73822bbb8cbd71U, 0x3d85ca633d0aedb9U, 0x3de7b1e4be13a85aU, 0x3d899ad73df8c2a8U,
  0xbcba30b73e145c29U, 0x3e8be71a3db741dfU, 0x3d9be78dbdaf4b85U, 0x3d1147ebbbf3bf0fU,
  0xbda6095ebdcd546fU, 0x3cb188a43e0e3a6bU, 0x3cb4953f3e9f44a4U, 0x3d1b7182be11ca87U,
  0x3c910fbe3d1e7156U, 0x3d93dd93bac93c46U, 0xbd7b7db23ea39610U, 0xbe12e0353defe9c8U,
  0x3e25d4333e2820c2U, 0xbe65125ebe139074U, 0x3e2fe557bee8d6aaU, 0x3e26386a3eac6d42U,
  0xbdbba8e3be022341U, 0xbe019b5f3dc9c2d2U, 0x3dbe77a53e1b207cU, 0xbe003454bd809e31U,
  0x3e5d10243db9b810U, 0xbec740eabe23a034U, 0x3e48e2c3bef1343dU, 0x3da3e1e43ef4064fU,
  0x3df7be863dbafb99U, 0xbbf8b0353c1c4a82U, 0x3db4665d3e0ff53bU, 0x3d49b2dc3e9e8d80U,
  0x3e689cfbbc1d6109U, 0x3cca2608bc59c90cU, 0x3dc0050abd4529f7U, 0x3dcec42b3ec40403U,
  0x3e3b80c53dc9bebaU, 0x3e6d46eabd21a89dU, 0x3e186e553d46ddcbU, 0x3e0979a83e0f4860U,
  0x3d93a6613da7ba1eU, 0x3e8a7d22bc614580U, 0x3d9321853e34347dU, 0xbc530c3a3b8c8b9fU,
  0x3dbd72fe3d0e1e32U, 0x3e9f87f53eb715e7U, 0x3dabed11bd22128aU, 0x3db82a89bd31e10eU,
  0x3cb5a1fd3ca91c26U, 0x3e8be027bd072345U, 0x3d8ea6183ebff154U, 0xbd97418f3d9159b0U,
  0xbe2581a8bea3b88eU, 0xbea8f7b4be01f942U, 0xbe5808d0bdd25d00U, 0xbdc2a65abe38f151U,
  0xbe7be44f3e203f44U, 0xbe9832e1be7017a0U, 0xbe3d3264be72f993U, 0xbe5cc8503e40cfe4U,
  0x3c75eaf4be46023cU, 0xbec4259e3e7e0eabU, 0x3e11e710be802a98U, 0x3e83eeb3bde160d8U,
  0xbe06c363be2fd965U, 0xbe87c62bbd650450U, 0xbdcd5c97be71f3f3U, 0xbe0c842d3d477236U,
  0xbe427cc2bd852be7U, 0xbe55d4e23f12f65cU, 0x3da6d46bbd6c42c3U, 0x3cd47666be82cb43U,
  0x3cbd14bf3c971d61U, 0xbe2c425dbddf3f90U, 0xbdfac3bfbe772882U, 0xbdd39ab63e82485fU,
  0xbe678875be799644U, 0xbe1e817f3ece10ddU, 0x3e4f5c56bda7e5d6U, 0xbdd3b96abe4790d3U,
  0xbe22e63e3dd03df2U, 0xbe6950b6bc92598cU, 0xbe4bbb9dbdd7fb87U, 0xbc445d273d0457e6U,
  0xbde36191be66ea7bU, 0xbe75ec263defc8b0U, 0xbd152339bda0e746U, 0xbcdb7e97be321db2U,
  0xbdf50db0bd6a218fU, 0xbd46fa1f3d859f76U, 0xbe17cdb3be2ed242U, 0xbe3a6a64bd85d320U,
  0xbe2006dcbe675975U, 0xbe0d5792be94fa01U, 0xbe924ec4be45b85dU, 0xbeb008aebda6a792U,
  0xbd5c0e18beb69eb6U, 0xbe0681babd6d3aabU, 0x3de42dc53d4a9275U, 0xbd3b8b553dadd727U,
  0xbe5ad611bdf74eabU, 0xbe459dd2bcd731a3U, 0xbd8292b6bdf436a8U, 0xbf068ed93c075052U,
  0xbded2827be9cc4cdU, 0xbe27955bbe8717f6U, 0x3ca37b7d3e218f8aU, 0xbe633c90bd5e171fU,
  0xbe213a953db44cf8U, 0x3e064ca63d2dcab7U, 0xbe49a579bdf6a0e2U, 0xbea48846bd80f57dU,
  0xbd2398a53cb55818U, 0xbe136f3bbdff09c2U, 0xbdf2227a3eb48fc2U, 0xbc7617bc3ae83342U,
  0xbea01df0bd928009U, 0xbd09d1b13d477a46U, 0xbe0206c8bd82c446U, 0xbda327e9bdb36d9eU,
  0xbd90039dbd185f94U, 0xbe914e38be17d7c0U, 0x3c240dc5bde83ca8U, 0xbcb244943e0304c3U,
  0xbe85a02dbd9b28daU, 0xbdbdbb41be9a636bU, 0xbed9c0a5be5805cdU, 0x3d8d8f65be830b52U,
  0xbe2e50373c5abeb0U, 0xbe96869abc5f8706U, 0xbea930c0bddc2b7aU, 0xbe4e7ca43d0ec109U,
  0x3e0e491f3e39c4a2U, 0x3ec8fc453c44f181U, 0x3da765a3bd159745U, 0x3ea8537e3e96eda2U,
  0x3e1b8d233d689254U, 0x3ea908833e85bd7aU, 0x3e50a4aa3f2ed724U, 0xbc3c3007bc7dbd89U,
  0x3e9c7fb63e386612U, 0x3e8a07973a4857b8U, 0x3d8a520d3d376bc0U, 0xbd7458de3e7fbc70U,
  0x3dd6050dbcc71b48U, 0x3e4d9d003e11efc1U, 0xbd9d61d73f11be3eU, 0x3dd91b03be893b52U,
  0x3e4c0bd23e1f9439U, 0x3daff1d2bda9ec2dU, 0x3e0813c43e77b568U, 0xbebdf6f63e8610feU,
  0x3e00e1d3be2a4c38U, 0x3da902e33caeb955U, 0x3d43dc273ef91651U, 0xbd9334953e1d7040U,
  0xbbd020ef3d9324beU, 0x3dbc24e6beba67aeU, 0xbbca9806bb7ccf3dU, 0xbec9b2413e348d22U,
  0x3d27b9ec3c845e00U, 0x3d9a0ef0bc6cc9ddU, 0x3ba334a13f046da5U, 0xbcd2755f3d92afe5U,
  0xbc7caf823d5daf63U, 0x3ea4c7b0bf00a48dU, 0xbe1d88cabcb6b935U, 0xbe9ddb123d87d802U,
  0xbc9048fabddc213bU, 0x3dda56a1be199eebU, 0xbd57121c3eb54d4bU, 0xbcd91ad93dcea59aU,
  0x3ee7280c3e354180U, 0x3e4f4b663e89c1a7U, 0x3dead7093d9ab017U, 0x3e91f1e23e159ac5U,
  0xbe32d61c3e644da9U, 0x3e90df1a3edf18c9U, 0xbc0a5bf93e718913U, 0x3dfab0b73e1e4799U,
  0x3dec60d0bd5deadaU, 0xbdbf6213bd038a8fU, 0x3e8368e73da0fd0dU, 0x3ef2286abd034ce0U,
  0x3cfb6dbf3cf0d6c0U, 0xbdd7e3a83dc158c0U, 0xbcce2a9c3ddf7432U, 0x3d48075ebc0559f4U,
  0x3e5666d3bd29d93cU, 0xbd8d741c3e9047c8U, 0x3e3fec41bd3f0514U, 0x3eae7b013d9c60faU,
  0x3de6baa43d9749a3U, 0x3cd899ae3e4e07e6U, 0x3d295ad3be513385U, 0x3db315efbe6e6288U,
  0x3ec651d03e740d61U, 0xbe0db18d3d738c83U, 0x3e04d3e83ce12e4dU, 0x3e6d15f83e11fefbU,
  0x3e17f5de3d475bd0U, 0x3e64a14e3e5dc676U, 0x3e397c44bda69495U, 0xbc7e50713d96bb81U,
  0x3eab9f2e3d943217U, 0x3ded23993eeb7c64U, 0x3e8ee4eb3d9a51bfU, 0x3e4720493e43e869U,
  0xbd62a83c3d17f673U, 0x3e7149313e05a9c8U, 0xbd75ee073d7e6e90U, 0xbe42de6bbe46fdecU,
  0x3db98ed6be916e09U, 0xbeac17173d5b0489U, 0x3cbf5d66be070e9eU, 0x3e8fb37fbe58cfb2U,
  0xbc709b523d6ed0f8U, 0xbe1a6a123db2d9e4U, 0xbd49a304bdd0ca6cU, 0xbd3706b63da2c87cU,
  0x3db57acfbe8677dfU, 0xbe5fff053d359e15U, 0x3c2bc2e0bdd654c5U, 0x3e81ede1bd811fb5U,
  0xbde745e73d62ea2dU, 0xbe26be9bbe0f5c3eU, 0xbcea4e4f3d8a7d9bU, 0xbd96cbe1bcf5d95fU,
  0xbdc911a2bede5a9dU, 0xbe27e6ee3dc37e53U, 0xbdd67bddbe4bc6d9U, 0x3e978f0fbe641351U,
  0xbe8076f3be70bbdcU, 0xbe124e05be093a65U, 0xbe89c2c53e2aa065U, 0xbe0696f8be17961bU,
  0x3d2a0020be763de3U, 0xbde0cecc3e1c665dU, 0xbdfbb539be869945U, 0x3dc24ef2be91c542U,
  0xbe08c234be1afb4eU, 0xbe5623f4be8213d0U, 0x3c94d34e3d47930dU, 0xbe174da3be753d2bU,
  0x3ca06271be11c972U, 0xbca6037c3e5ceb17U, 0xbb979a99be0af3f8U, 0x3d102209bd838014U,
  0xbe295c29bd826071U, 0x3dc52d3abdbcf52bU, 0xbdde0b5f3db20d56U, 0xbe1d3895bcec5c4aU,
  0xbd4ae486bd1b530bU, 0x3db32b6dbdc125bcU, 0x3be4ba573ca1ae08U, 0xbdcbad013db1ad59U,
  0x3d8caa44bd923a52U, 0xbde3517d3dda9f72U, 0x3d8a0c123dab3143U, 0xbcd4a5c5bd9f19ddU,
  0xbc2401833d89dde2U, 0x3d5209363d4ed371U, 0xbdd91f3d3d76e484U, 0x3ddf7866bd62a045U,
  0x3cf1058ab9fcb878U, 0xbbd730f63d747774U, 0xbb824c183dd3a466U, 0xbd5ce6b7bd820983U,
  0xbdc09cebbdab37f7U, 0xbdcc5c4d3b946ef7U, 0xbdaa2757bda01db3U, 0x3d3dd636bcbb7a03U,
  0xbcfef551bdd662eeU, 0x3d05d100bd1ff421U, 0x3da8fb113b0cc2e9U, 0x3cb5266b3d3dcb4eU,
  0x3d8789893ddf371dU, 0x3cfe53abbda2bec9U, 0xbd17b78a3d4f5984U, 0x3c60cf603d2e2c7aU,
  0x3a5a74f43da64b92U, 0x3dc875ba3ced89b8U, 0x3cff9192bdcafb4dU, 0xbdca801dbd6f1a1dU,
  0x3d8ceb163dce60f8U, 0x3cbea2b33b079440U, 0xbddadce33d1058edU, 0xbcf8bfe83d8abc3aU,
  0xbdee6afb3a0b4768U, 0x3ccd2d53bd3e15f5U, 0xbd5dc2efbe03b41cU, 0xbd8d4855bdb6f27dU,
  0xbbd02605bd908037U, 0x3d6c68b8bde6bf14U, 0x3d8f79e1bd7aa5f9U, 0x3d12431c3cd538cbU,
  0xbdf7facbbd90ca77U, 0xbdad96b83da7c78aU, 0x3dddcb44bdd1b993U, 0xbd9dc7563d4fda60U,
  0xbc86ac91bda23710U, 0xbc0cda9ebd9a4f15U, 0xbc177394bda0c6d4U, 0x3d8bd35ebd8be67fU,
  0x3ddfdecabdb6f585U, 0xbc246292bda54838U, 0xbdbe27e3bd6125e7U, 0xbda465e6bd02cc6eU,
  0x3cb7858b3d977fc6U, 0xbdfd465e3daf6151U, 0x3cd12b44bd940b43U, 0x3de8f70ebd56bbc9U,
  0x3d5fcb77bdf586c2U, 0x3dbc758b3dcac119U, 0xbd996defbd55b691U, 0xbda94ba2bda6a9b6U,
  0xbd82546fbdd7d48aU, 0x3dd46d06bdcdc9ceU, 0x3db2f8bebd870a29U, 0x3db58e203de0dbdfU,
  0x3db555d93c764095U, 0x3ddd1ba43d7c06c7U, 0x3d2d2d61bd90c8cfU, 0xbd6483bdbdfb4ee2U,
  0x3dca4975bd1c9028U, 0x3c8f09053db41135U, 0x3c1e9567bdd4c9f4U, 0xbdc59fe9bdc32516U,
  0x3c0d0a0e3b476fdbU, 0xbd68a701bd3f3daeU, 0xbdb065c13d122ed8U, 0xbd66223dbd3f9907U,
  0xbd7d2e35bd9233b8U, 0x3d019c143daded4dU, 0x3db816fd3c80bcd8U, 0xbca4d55abdf6c770U,
  0x3da5e04c3d875c52U, 0xbbfef55bbda7b1faU, 0x3d66ad0cbc223d3bU, 0x3d4657e9bd62d1bcU,
  0x3d431151bd58d55fU, 0xbc15fa80bc88bf5eU, 0x3d9066dcbbfd1890U, 0x3c9f3ea0bd292a91U,
  0xbcbd92b7bdbd2f29U, 0x3db0aeb6bd8e28b9U, 0x3d0e6df4bb92105dU, 0x3d956efbbdaac5edU,
  0x3ce11f6cbde7f945U, 0x3d36a4083de1461eU, 0x3c3ec0babdcc3b95U, 0xbdbeaf52bdae8b0cU,
  0x3dc049f73db45cb4U, 0xbdf6e1a23d8c7d19U, 0x3cb5f42dbddd0feaU, 0xbc28b0cbbcd85d32U,
  0xbdb40addbdb762a0U, 0xbda138223ce96110U, 0xbd5b0d40bd7a64b7U, 0xbd392a7abd5b0fbfU,
  0xba7ef3403ba1a1f4U, 0xbddfdd233da9769eU, 0xbd76b190bd4299ecU, 0x3d6427dcbcf574b3U,
  0xbcdadc65bcd51b85U, 0x3d08441fbca0b284U, 0xbd4cd9e23cd0fdf8U, 0xbdd8fe8dbdbd777eU,
  0xbd917382bdbb9d15U, 0x3d565fa4bdd6e41dU, 0x3d0340b9bd31f13bU, 0xbd5605ebbddd1c2aU,
  0xbd50a995bd65121bU, 0x3d2b275dbda424b0U, 0xbdb98d92bd877926U, 0x3d07127a3dd45305U,
  0x3dae7254bd96e7f1U, 0xbcf0eb173d831c1fU, 0xbd6b9fd5bd7d28a1U, 0xbd7eee1abd479afcU,
  0xbcd990e9bd5255edU, 0xbdceccf6bd59a899U, 0xbddd9df1bde2c1c1U, 0x3d86f915bd2655c4U,
  0xbddbde243dd5c5edU, 0x3d15dc9b3d2b6e2cU, 0x3d71f0b7bdc1e4b0U, 0xbcc664753d82d911U,
  0x3dd6b76cbd7e670eU, 0xbd294c66bd326786U, 0xbdbebca13dcdca54U, 0xbcb2c2fc3d82b43bU,
  0x3a2782c3bd816686U, 0xbdc016f0bcdf755fU, 0x3d2c1b21bd8ce934U, 0x3da0b5bcbdf328c7U,
  0xbd76e637bde16b8fU, 0x3d81e8e43d5ef161U, 0xbd780e683d99f2fdU, 0xbd5ffcaabc4c064dU,
  0x3c8f1828bd246071U, 0xbd991b963c4f478cU, 0xbc918e3f3d12b608U, 0xbcd9abaf3d6b056dU,
  0x3ded11d33d632e5cU, 0x3d6dabc53dd531fcU, 0xbda64415bde5a211U, 0xbdb37970bde6ba81U,
  0xbdd4c88ebde392e2U, 0xbdde7adabddfbecdU, 0xbddb9a513dc0adcfU, 0x3d852eebbdcdeb5aU,
  0xbd0d83fbbd5c66a6U, 0xbde67defbd95843aU, 0x3d0f46543da2a831U, 0x3d9aa1ae3c9e8e57U,
  0xbdaeb3863db63cedU, 0xbd2e01e1bb19f007U, 0x3cd86810bd9d6e14U, 0xbd8a2ee0bd9202efU,
  0x3c8af68e3dbd1dd4U, 0x3c88dd85bd4712ceU, 0x3b3d82a0bdbcaf42U, 0x3de337283de1108bU,
  0xbd241a7fbc786f05U, 0xbd82f7b4392d88c4U, 0x3d54f9e5bb54fbe3U, 0x3d5d47de3d10e14fU,
  0x3d83debfbdace0aeU, 0x3b58271b3baa892bU, 0xbddd08d73cc5d8e6U, 0xbda96e2f3da0a803U,
  0xbd287a0f3d51ed02U, 0x3cb689eebb00953aU, 0xbc310920bcef67a2U, 0x3c3a0d123db77876U,
  0xbdcf4f2e3ce2b4b7U, 0xbd3c4ab23d8ca892U, 0xbcec95183d1e7210U, 0x3d15f51b3da84090U,
  0x3d4244903d7bb69eU, 0xbd55df2dbd8d511eU, 0x3d877530bd909b40U, 0xbc26f930bdf1049bU,
  0xbde8649d3d6c0089U, 0x3b95cc333db806faU, 0x3d6455163d27e937U, 0xbde4ff57bdcbac05U,
  0x3dd27930bce6ec99U, 0x3dc1c989bd775a06U, 0x3cb6e37a3d43e1ffU, 0xbd21f58b3d8ec7e2U,
  0x3e72053a3dba8f71U, 0x3d9852773dee7f23U, 0x3e866b743e36cf03U, 0x3dbb1e993dcad366U,
  0x3dc3970e3eaf1b0aU, 0x3ce88e9c3e622fd5U, 0x3cd1ab7bbb0f05f6U, 0x3e5eb30c3e919160U,
  0x3de10ec93de95289U, 0xbbb5de273d63332bU, 0xba9ea2ea3e61e495U, 0x3ec7b15dbd94c826U,
  0x3df6445e3d345877U, 0xbdb643a63e01726dU, 0x3dcdbdc7bd8bdd23U, 0x3e4c14f73e9d6941U,
  0xbe128e64be43f83eU, 0xbe8e46bf3d98bfe0U, 0xbd3416853e036f38U, 0x3e867284be289458U,
  0xbc4c7e173d461f92U, 0xbca77adb3d134f10U, 0xbb4b71f3be883b2fU, 0xbdc9aa5b3e42e040U,
  0xbe790110bec484daU, 0xbf0221a9be799eebU, 0xbe229423bea553b0U, 0x3d5253debe976851U,
  0xbea531c3be86ced1U, 0xbe6805e23d844bdaU, 0xbe5f174dbe8d6f9bU, 0xbe5d4d403d689ffdU,
  0xbeaec2d4bf06cd19U, 0xbe891a06be30df05U, 0xbed6e501bee9b3e1U, 0x3de20799bedb0bcbU,
  0xbecdc2e1bf12ee60U, 0xbf16938bbecbce07U, 0xbea9783abeb13b08U, 0xbefe0524be9f99f0U,
  0x3e0feccc3e4632deU, 0x3e5d11d23d1d857cU, 0x3da3839e3e149621U, 0x3ea872f93e8c9f85U,
  0x3e622b6a3e6fdb26U, 0x3cf03b593d44cfbcU, 0x3e20fac23d9c5968U, 0x3e1cf1d43e7c461aU,
  0xbc873f9a3cdf5191U, 0x3e1cf5ec3b8133d5U, 0xbded592a3dc6f61dU, 0x3e73fbb43d75d2ecU,
  0xbcc299043e0d76ebU, 0x3da0aa523e1a83b3U, 0x3d8dd4f2bd5933b6U, 0x3e11c5a33e767e2cU,
  0xbe58f52abdb9982cU, 0xbe006c56be8df1b7U, 0xbe0fd645bd92d57fU, 0x3ddf3706be7c31afU,
  0xbe5aea6bbe098806U, 0xbe81e222bd6e1734U, 0xbdddb03cbe0837dcU, 0xbe47f2143ca7ea87U,
  0xbef27fc1bc47c109U, 0x3e9e7a44bf0ee590U, 0xbef17146bde2682dU, 0xbe69ed22be026ee4U,
  0xbd6bb0a6be9fb10eU, 0xbdb4f556bde4e655U, 0xbd6967313ea33e92U, 0xbddabf3dbe238be3U,
  0xbd0afee23e004722U, 0x3efa5538bec58e6eU, 0xbe5caa32bd92ad55U, 0xbe0d8a9f3d4655d8U,
  0xbd9630a9be268fbeU, 0x3e3bc507bdb04584U, 0x3df0213b3edbd772U, 0x3e2272c3be5904e7U,
  0x3dba8e503bf3666bU, 0x3ca131983e248363U, 0x3dfc02d33e7f83eeU, 0x3e89e79dbdf00678U,
  0x3e1e235a3e4ba57cU, 0xbd39769fbdef42aaU, 0xbd0a09e3be78e64eU, 0x3d8153873e210ef8U,
  0x3ae1c57abce43c7bU, 0xbe125703bde5d9b6U, 0x3d36467c3d7beceeU, 0x3ec8d820bd99e5f5U,
  0x3c55957cbdc70e0dU, 0xbe841e05bd4b310fU, 0xbda57636be9c7a87U, 0xbde56ee93e613902U,
  0xbc89306bbde29ecbU, 0x3e712759bd67104dU, 0xbdc62b473cbc728dU, 0xbdc077c03d5bc225U,
  0x3c3e22fa3dfbf02aU, 0xbd6ab5aabd3c7b88U, 0x3d65e88cbe2c1bb2U, 0x3e0ad491bcf81210U,
  0x3d42c87f3e3ead06U, 0x3e8bccd5bec5c49cU, 0x3ce5e9583e167f0eU, 0xbe0b4da3bd21ab7cU,
  0xbc5ac8fb3d7c318cU, 0x3e78744e3e4f3888U, 0xbd976cf83d9e7c1dU, 0x3dfbae87bcae8181U,
  0x3e846b2e3d98e995U, 0x3e75f3e23de39954U, 0x3e6a477b3e265103U, 0x3dd87ee03ea9b14dU,
  0x3e4212e43e35d3f2U, 0x3ea7441e3e702a80U, 0x3e9276e63ced7e04U, 0x3e5e1dc6bdd97240U,
  0xbd05255fbd930a72U, 0xbe17ed89bdc0e36cU, 0x3dc44acd3e441c93U, 0xbdbefb48bd4c18aeU,
  0x3e139ce0bc306f2aU, 0xbe23a22c3ded9f55U, 0x3e25a3f7be4da71cU, 0x3e0d9e973e2407a5U,
  0xbdcdeabf3e0996a8U, 0x3e4a5e653d84a0d1U, 0x3c08371e3d7db7ecU, 0xbe2efc11bc264956U,
  0x3e26d787ba6283a4U, 0xbdc8e6a4bdd2315eU, 0x3c533a403d9fa459U, 0xbd9cd5ff3e851187U,
  0xbe0462603d0c7af2U, 0x3e2e1e58bd2f042eU, 0xbd06d80e3e4ca833U, 0xbe8eb7833d5dceb8U,
  0xbd83b0bb3e0ab252U, 0xbb8a1dd43ca8dec1U, 0x3c6242dd3e3f8a6cU, 0x3e1d0ec0bd090a21U,
  0x3e15f6663db5638bU, 0x3e546295be579cc8U, 0xbdabcfe83e1de2b3U, 0x3e898d6b3e6be589U,
  0x3e5d02b63dc186c1U, 0xbd6fd8a73e633e7aU, 0x3dc81516be95a702U, 0x3dfef0593e2dbf0dU,
  0x3db6673e3d673931U, 0x3dd7ec323bdc3ff5U, 0x3dff01cd3de53346U, 0x3e983f113d951351U,
  0x3b7859493e8b81c0U, 0x3d3841013e441797U, 0xbd86ff52be3a9355U, 0x3e7e1db6bd4d6cb5U,
  0xbe8a8697be04a5a3U, 0xbe657c04bcbd9f8dU, 0xbdf64e363ae4dfbcU, 0x3da9e791be3dad89U,
  0xbdbcf7ecbe34cb75U, 0xbe6ce5dbbe85d009U, 0xbe487639be50975aU, 0xbdbc33533e4f1831U,
  0xbdd5e670be14928aU, 0xbca8ca593dae89a1U, 0x3e0d7d50be8d512bU, 0xbbc23bcebdbfc6b1U,
  0xbe4585d43bad7e83U, 0xbdc55c34be202391U, 0xbe65e720bd8f5206U, 0xbdabcc9fbadabeceU,
  0x3e294f6a3d5fb514U, 0xbe685be93e2891d6U, 0x3e2e5fad3d6a5506U, 0x3e2f340dbd2c51e2U,
  0x3de7e8e53e0b16c8U, 0xbd9ac78d3e45a43fU, 0x3e629a95be80e1d5U, 0x3da60f49be27ac0eU,
  0x3eaec7a3bd7f9fdbU, 0x3dbb18a83e1be36cU, 0x3d0d72b9bd34f93bU, 0x3e6bf46b3d7d818eU,
  0x3e1abf733cbf3752U, 0x3dffd2423dac9a26U, 0x3ccf4b7ebd6827d1U, 0xbde3339ebdac8ee4U,
  0xbb443d54be430b15U, 0xbca041d03dc4ee3fU, 0xbd04a6c3bdbea8ceU, 0x3ea80c53be79348fU,
  0xbcf3449abe18c0a8U, 0xbe7afcd6bdd6fc4fU, 0xbce6b04dbdfc4dcdU, 0xbe5989283c9aa1ffU,
  0xbe688aeebe8f6bbdU, 0xbe86746bbd4375e2U, 0xbe9218b4bd37c4f4U, 0x3ca8bfa8be5787bbU,
  0xbe496962be9189dcU, 0xbe3858dfbe075297U, 0xbe6d6665bd978811U, 0xbe2d3c41bde646deU,
  0xbd347fb1beb03698U, 0xbed38ce7be863d10U, 0xbea482febe35ed6dU, 0x3e19914fbec36d47U,
  0xbe807a99bdf4306aU, 0xbe93ab8bbe8c5252U, 0xbf115fd2bedc476fU, 0xbe891421be29e8f2U,
  0x3d740bb1bf07b2baU, 0xbf1afd893e72c124U, 0x3c5f048abf213555U, 0x3e8b81a9becfbbadU,
  0xbefc43ffbed4e0a6U, 0xbeaa9d613cc97082U, 0xbebc3b88bf0ea76aU, 0xbf10e359be8ba18aU,
  0x3e6751adbc2369abU, 0xbd90a7653f3b6012U, 0x3e066b36bded6385U, 0x3dcc10fdbe1671e0U,
  0x3ddc9a97be1256d2U, 0xbd754995be9243d1U, 0x3dfa499bbe5fb0b2U, 0xbd15f1a5bf12fc8bU,
  0x3eb359fa3bf4c45eU, 0x3e4585bf3dab1831U, 0x3eb0b39c3e6d4c9cU, 0xbec42ca43d9d238eU,
  0x3e21079d3e742f5aU, 0x3e2431893d2878a3U, 0x3e99cecf3e3f2e13U, 0x3e1785083e421af0U,
  0xbd942a303e37a107U, 0x3de86f49bea2378dU, 0xbe3f18e53e007c78U, 0xbda44a9a3e2fed40U,
  0x3bb9ba26bc871281U, 0xbcbd5df7bdf261b0U, 0x3e1b56323ed6938bU, 0xbd8622b93d466293U,
  0xbddaf7a03d2b0210U, 0xbda96062bec76d0aU, 0xbf002dd1be8a586dU, 0xbe2a5d36bcec8f31U,
  0xbe5e23d2bf28671bU, 0xbe1e7291be0d1a4aU, 0xbdf124053ec6ca8dU, 0xbe8bb67d3ddef250U,
  0xbecc5487be1928f9U, 0x3e87bfd2be4dfe84U, 0xbe01dd14befa711dU, 0xbf3818183d4958c0U,
  0x3db71279bed4e167U, 0xbe068324bf0254ffU, 0xbdb8be963ed62a72U, 0xbde62925bea802baU,
  0xbe35dcd23df3981aU, 0x3eb17550be6b4e07U, 0xbe384a843e246977U, 0xbe65de43be236e14U,
  0xbc8affde3d9574ffU, 0x3d98b72abe6a776bU, 0x3c8397ce3ef9056dU, 0x3df78465be3e88f5U,
  0x3da7bb5a3e71987cU, 0xbe927c5c3e490450U, 0x3e87eb2e3e225123U, 0x3da1d3ed3df74e0bU,
  0x3e7570803dc6264bU, 0xbd91b5603d0643c3U, 0x3e887577bd9ed86fU, 0x3e6da4773e2d5738U,
  0x3dba49663f106befU, 0x3eef5dc7bd681e54U, 0x3dd450f73ed357e2U, 0xbd6c2f4e3ec92b4bU,
  0x3ec70bd03edd0590U, 0x3f188a2b3db34a7bU, 0x3e7c2ac03f0c0b5bU, 0x3f00829e3d95f137U,
  0x3e05e0103eb24456U, 0x3ec30555beaaa5fdU, 0xbe194a003e131aabU, 0x3dd605fd3e9f97adU,
  0x3e3a07ebbe2bd351U, 0x3f0b63713edba581U, 0xbd95a3603ec3ac54U, 0x3d9e3b7f3dbcb040U,
  0x3e7fe7233da016aaU, 0x3e82ac74be41e6dbU, 0x3e6bedb53e1e525eU, 0x3dad9306bbd44976U,
  0xbdbc32843ea0bb54U, 0x3ee19af13dbe70a2U, 0xb8f5644c3f0fb790U, 0x3e10658dbec5c741U,
  0x3de033413da38771U, 0xbe3b17c33de25744U, 0x3d575e473e7453faU, 0x3ea5850ebd851cacU,
  0xbcba83383cddf6f4U, 0x3d86f2e23e0b2e35U, 0xbcacc5793ea515cfU, 0x3e7cf347bc129dbaU,
  0x3e289acfbd004c83U, 0xbc8356463e211c65U, 0x3e527f6d3e03d151U, 0x3dd6d88a3d9b30adU,
  0x3e761d1e3e565828U, 0xbda4dff13e4b83beU, 0x3e0dc48bbe20da2eU, 0x3e3a163d3e33c4bfU,
  0x3e2d0b7d3eefbb39U, 0x3d4c979a3ea180e6U, 0x3eb0617c3eb13d3eU, 0x3d17d7b93e2f7ad8U,
  0x3ed78e6c3e9d0a98U, 0x3e2c2c953e272132U, 0x3ef0ee70be15a9edU, 0x3e722bd83df9851eU,
  0x3e135bb83e557b94U, 0xba354467bd40d887U, 0x3da72fcb3eafd2d2U, 0x3d62bce53e5e9e09U,
  0x3e0576ab3edbac92U, 0x3e1e142e3e300d59U, 0x3e118112be91ea9dU, 0x3e652a193eba6e29U,
  0xbdf375b33d3d3df9U, 0xbe603a8abd4addb0U, 0xba349a863e4e29c1U, 0x3ef25779bd505670U,
  0xbe4180103d8a870eU, 0xbdb5a46a3e777ec3U, 0x3d139e70bd500da5U, 0xbce13cad3d046a14U,
  0x3dc5d289bdd4c858U, 0xbb82dc743e5b8a81U, 0x3d713a453ccda447U, 0x3e82ecbabea3c699U,
  0xbdda4a733cdaa063U, 0xbe8aacc2bbe1609cU, 0x3cf36a92be500a05U, 0xbc99a89a3d074affU,
  0x3dd71e2dbe276d4aU, 0xbebc50033e837d3aU, 0x3dd9addb3db266e7U, 0x3ec9cfcabedca6bbU,
  0xbe05b1373e4a8174U, 0xbee97ce93c4967d8U, 0xbc118f2fbee19d28U, 0xbcf33530bddff3e6U,
  0x3d3c6fb23d902e6aU, 0xbe4943573e17c995U, 0x3e87bceb3e3d60a0U, 0x3e03795cbd8097cbU,
  0x3e35dfce3ea4560cU, 0xbd978a97bdd007f0U, 0x3e050c96bdf3a3d5U, 0x3e808a43bd972c46U,
  0x3d07e048be1be75cU, 0xbeb7218a3e8f158aU, 0x3dc1acdb3e4ad178U, 0x3e8db22cbd3ba389U,
  0xbd31a1903e3029f3U, 0xbe9960ecbe376f12U, 0x3aff006fbef5ee95U, 0x3d5549393d5509f6U,
  0xbd4bd81cbd605518U, 0xbeb1e825bdbf5086U, 0x3ca867b4bb95daffU, 0x3e3b564abdab7dc3U,
  0x3d154390bd72054aU, 0xbe0a2edabdab82e6U, 0xbd43ba53bd1534aaU, 0xbe0d6d6c3d907a3aU,
  0xbe3783c2be855b1bU, 0xbe1bf141bdef62dcU, 0xbdb33b55bec0a1e5U, 0x3cfa2dafbeceaa64U,
  0xbdeaf38ebeaa9826U, 0xbe71f0b9be7aaf23U, 0xbe7864babd4ac865U, 0xbe527adbbe6b7942U,
  0xbeacb069bedc21d0U, 0xbef7dd6fbe109ff7U, 0xbed737d5bebeb4cfU, 0xbdc2b9f7bef24c24U,
  0xbe464f17be33cfe9U, 0xbed8ca1abdc5ad0dU, 0xbe8385c2be7ae646U, 0xbed91d21bdf725b6U,
  0x3e192f7dbe2e30c2U, 0xbde70f6abe22983fU, 0xbe70d353be7353a8U, 0x3e2d95d7bd4ddab7U,
  0xbe0710e1bd8cb2fbU, 0xbe06dfe33dcacdf7U, 0xbda86d883b5f8b22U, 0xbe95da5f3ca72291U,
  0x3d47d99dbe6dc393U, 0xbdbe6b45bcec9312U, 0xbc68ce7dbe67b186U, 0x3e178bd8bdb3f9faU,
  0xbe3f6fdfbdd6dc31U, 0xbe1ee7e93abd40a5U, 0xbc6d43d3be4a21afU, 0xbe2fea3cbe0dbba7U,
  0xbe4d46dfbe1a1ec6U, 0x3d32590a3dab0dfaU, 0xbd2df54dbd7d31c0U, 0xbdae91c7be23a4a9U,
  0xbd0c077a3c8d824dU, 0xbe05f0dcbdf7984bU, 0xbd867fd83d8f4833U, 0xbdf18d80be7af799U,
  0xbe9f855bbdf7d248U, 0xbd9d4c0abc9d8e92U, 0xbe3bbbe0bcce45e1U, 0xbedf80393c15aad9U,
  0xbd811c81bde9794cU, 0xbd95c02bbd324e77U, 0xbd2fab4cbd922644U, 0xbdb471653d27a04aU,
  0xbe57aca7bd5deba1U, 0x3d6cdf3c3dcfd4edU, 0xbeab5cfa3bd2a1bcU, 0xbe084bb6bd197940U,
  0xbe39acf7be163c99U, 0xbe1a8d5ebc9a855bU, 0xbdf00de43ded399bU, 0xbddd1684bd298de7U,
  0xbe00287a3e835fb7U, 0xbd0c6328bd5e18a7U, 0xbe510c363d010225U, 0xbdfd755d3e6aba47U,
  0x3d51debebe9efcd3U, 0xbbf0b97dbd1c6ac1U, 0xbc383f363e6fdcf6U, 0xbbe1c9993eea4423U,
  0xbd6dcf393b0e88a0U, 0x3da0c8083da460c1U, 0xbe232b203cea5975U, 0xbdb9a6153de4fa0aU,
  0xbc22d271be282403U, 0xbcb9be8abe33fd81U, 0xbd2ac7cb3e935576U, 0x3e0ac69fbc3f9e9dU,
  0xbdd21a5a3cb9bc0dU, 0x3e7f7591bd9c9e5cU, 0xbcdd7f1ebd113475U, 0xbcddfaeebc21d52dU,
  0xbd8b5c343e078797U, 0x3e18b97d3d1925d2U, 0xbd5941bb3e624ae6U, 0x3d5356fc3dfbdc67U,
  0xbe72822ebdea64d9U, 0x3dd7e7d33c634c61U, 0xbe1ee3643e24758cU, 0xbe082fd03c2c99f2U,
  0x3dc783ce3e4da4a9U, 0xbc862953bce2549eU, 0x3d974680bb2094c7U, 0x3da499db3e61cd68U,
  0xbdb48d5dbc9a61e3U, 0xbe03638ebe3dded8U, 0xbc432cc13dc83764U, 0xbd2a112bbd45cb46U,
  0x3b495e523d49ead0U, 0xbdfb43e93daf4acfU, 0xbd3885013c875cdaU, 0xbccf4f7b3dcfd954U,
  0x3e5df2033e7319b4U, 0x3e7dc98cbe0b530dU, 0x3d9d3bf13dd141a9U, 0xbe97ab3a3e639b61U,
  0x3da5d8443d6f1d06U, 0x3e9313493e0a4bdaU, 0x3e4832cfbd8de448U, 0x3d46cf993ddc0595U,
  0x3e05eb393ea333b6U, 0x3e5704edbe206609U, 0x3e0a110f3e8946d1U, 0xbdc7aef93e22879fU,
  0x3c0ba0ff3e03cdffU, 0x3e2706363ddac89eU, 0x3d359c733e8f9f87U, 0x3e0caaa83cacad2bU,
  0x3e12316a3d4dc220U, 0xbd6724af3de752baU, 0x3d4103e83d79b379U, 0x3dc8d5e03ddb0872U,
  0xbd9184db3b6113e4U, 0xbd7681243e67d438U, 0x3dbc8d353d961946U, 0x3ce3a6073e3b518bU,
  0xbdd215533e1ab343U, 0x3d39bb543d11ce47U, 0xbce62a0b3e82ed60U, 0xbe319d813e56c3e9U,
  0x3dc18b4e3e80559fU, 0x3e0a069e3d2314a1U, 0x3d575e23bdfa13e5U, 0x3d26a7143e154130U,
  0xbb962ddb3eaf9f80U, 0x3f121c99be00ef10U, 0xbbf537483e11cb21U, 0xbd4dbc813de88553U,
  0x3e3db87c3debfd6cU, 0x3e029de73e15e2e5U, 0xbd617e7b3e3c6b9bU, 0x3def6c3f3ea3a6a4U,
  0x3c3212f93d2412b8U, 0x3c938f6d3e1f0f5dU, 0x3c6eeecd3dd7c66cU, 0x3dc22811bdd74700U,
  0x3e28bf583e46fddcU, 0xbe9b4d003cff880cU, 0xbd933baabe5b0eeaU, 0x3e0987c43e33f356U,
  0x3e593605bd816ac0U, 0x3c468b253e839b74U, 0x3e933dd73b72a6e2U, 0x3e9a97a23d7c13bcU,
  0x3cfcdd10be0c7555U, 0x3e6751dc3ea39a47U, 0xbd4c35c3be0448ceU, 0xbdcef4e93da2f7b1U,
  0x3e9418a0bdd3dae2U, 0xbc6dfa0f3e92d238U, 0x3e83ce28bcdfa92cU, 0x3e11a3f1bd870450U,
  0xbd312a113e0ff144U, 0x3dc7e5603e4dcf71U, 0xbd3b0c07bdc5c092U, 0x3d069445bd06ed71U,
  0x3e8960b63e4dc5afU, 0xbde5389cbcffb94fU, 0x3e2210113e3498a1U, 0x3ec1f902bdf41e03U,
  0x3d5614133e40133fU, 0x3e224b213eb76945U, 0x3cce41e7bb8bafe2U, 0x3de1752ebd42699bU,
  0x3efa1de93d56f4c7U, 0xbdc358c33de24aa7U, 0x3e3bf5ab3e09e267U, 0x3f01237d3d540c7eU,
  0x3e4c34ae3e9895b2U, 0x3dd9f57b3e9612fbU, 0x3dc237ffbe0e765eU, 0x3e8a7b373ddbffbeU,
  0xbde90513be2980d2U, 0xbc5d67acbe39af52U, 0xbdd565d8bdc0483aU, 0x3e04ae06be2ca556U,
  0xbb3b56f4bcb528e2U, 0xbe181f94beb26268U, 0xbe22f377be2ba76cU, 0xbded18eebd2457faU,
  0xbe6698a8bee0adfaU, 0x3e26b4babe076443U, 0xbe1c939fbcffd3bbU, 0x3d04d439bef56298U,
  0xbdfb15b93d873285U, 0xbe7ecfbabd14cd6dU, 0xbe7bb0f0beaeec04U, 0xbe3f0cb9be3faac7U,
  0xbeba67cfbe980114U, 0xbeec5ae03e270643U, 0xbdcb32cf3c1c8e11U, 0x3c9c0c24bef5f110U,
  0xbeb30acc3d7bc958U, 0xbf05b951be2f39aeU, 0xbe65c832bee85a4fU, 0x3dce3d853d930412U,
  0xbe8aaa05bdd9538aU, 0xbf5b0f213e647942U, 0xbe6d98183de89b81U, 0x3e7e47d6bebc95eaU,
  0xbe28e29dbe4e435eU, 0xbf3b89abbcadc834U, 0x3d4ea058bf30a0acU, 0xbdefbdbc3e675750U,
  0xbe578a6bbe59a58bU, 0xbf50773d3e4ed80bU, 0xbe567661be625883U, 0xbd677a97be9df5b6U,
  0xbe29835cbe875f93U, 0xbf0c7539be6be5baU, 0xbe1c5e94bf58a848U, 0xbea0056f3c91c261U,
  0xbe4fb37fbdcb7c75U, 0xbe0f4140bde0760eU, 0xbe7d18f7be20037bU, 0x3dd05762bd803facU,
  0xbdae609f3d933143U, 0xbdb76334be880f67U, 0xbe425eb1be823ee3U, 0xbe179d42beb743b0U,
  0xbdc21341bda2ce30U, 0xbd3fa712bd839802U, 0xbe2f3a3dbdead337U, 0x3f06b3c1bd4a8c78U,
  0xbe3225013da16e68U, 0xbe5b21e13d3fec50U, 0xbd3fcadfbd719666U, 0x3c872d65be9ae6fdU,
  0x3de4861bbd89be79U, 0x3d40460a3e0b9943U, 0x3e3d45fbbdac6614U, 0xbe84243abd57f87cU,
  0x3defed34bcbf9494U, 0x3d1921ef3e08a3feU, 0xbd4bb80f3d449645U, 0x3da1beadbdcb5e84U,
  0x3d9abed0bdd1a2f5U, 0xbc620d113e30a4a3U, 0x3eaed15a3e0336d8U, 0xbed0d0613ccd75e0U,
  0x3e0961c0bc504018U, 0xbcfb9d053d2511ccU, 0x3d5f4e863df4177cU, 0x3e1abbd63da21c2bU,
  0x3cc1bfffbd49c567U, 0xbe8bafad3e811817U, 0x3e12b6cf3dd30a47U, 0xbe4f15fcbdeaf917U,
  0xbdfafd20be1f8622U, 0x3c137eb0be20c982U, 0x3d8a01563c6ce38dU, 0xbe3c8d683e611909U,
  0xbe8d575abd751ce6U, 0x3e0a7c20be69447eU, 0xbe5cd25fbd1f9003U, 0x3e05632abe147373U,
  0xbe8af0f53dc3382dU, 0xbe4dcc453dd9d132U, 0xbe334a4cbdd743b3U, 0x3bd2c1a9be81ed7fU,
  0xbe0ace3ebe072642U, 0x3e195690bc782d67U, 0xbe44afbabdad6b07U, 0xbea255dcbd0f8d5dU,
  0x3c3b0659bd9c1294U, 0xbdbafa65bd9f2b3aU, 0x3dc4b8323def4c6fU, 0x3db6ebd2bdbe5a56U,
  0xbe270233bb6515e2U, 0x3e9ddf8a3d14a741U, 0x3cda7e953b7fb761U, 0xbeb3b3c1bcaded8fU,
  0x3db0e2d6bdcadd7cU, 0xbd2c5bfbbe5d3fc7U, 0xbd9177253d870d9eU, 0xbbbf0a613d93a1c5U,
  0xbe582faebe4c3747U, 0x3d6de0753e935cabU, 0xbddd6308bd7f4ff7U, 0xbe87b576bccbb343U,
  0xbca0499b3be6987eU, 0xbdd90c03be540472U, 0xbde86093be95b432U, 0xbdae85d83c99471fU,
  0xbe688729bdb57c13U, 0xbdcf9d313e233429U, 0xbe140fb3bdaf2540U, 0xbf015dafbb9c39ddU,
  0x3c8b00c6be02a4caU, 0xbda5786cbe043e60U, 0x3e6a99bfbe6e05d3U, 0x3d63f0f0bca8a117U,
  0xbe2ce3813d289db8U, 0x3e7373273a8034f9U, 0x3cdc0a33bb7ce2a2U, 0xbe83cd643e779290U,
  0xbcc1d3c7be07bbb1U, 0x3db8e62e3bfaefadU, 0x3e3e7e65bd0da638U, 0x3c8a22083dfa3c3aU,
  0x3c2e33d5bcaa7fceU, 0x3db022353d42db31U, 0xbd86e139bcfc9b81U, 0xbeef48d13da750dbU,
  0x3d8c1a56bd384e25U, 0xbd40d2ff3d974d46U, 0x3e50ecd13e06d204U, 0xbe00346b3db7b42bU,
  0x3d0132adbbf123abU, 0x3d9f2a033d68b00dU, 0xbcdbabb3bd17792aU, 0x3cd34bd33ea4f9daU,
  0x3da31ba1bd6b5a3dU, 0xbd50ef16bcff3f11U, 0x3dc545053dfbfcc0U, 0xbc86590d3dbeb756U,
  0x3cfbfca93d68747fU, 0x3ef4a969be59f66dU, 0x3d4cf3c93da5c008U, 0xbdfc552c3db0ce6eU,
  0x3d18f6983daf95a5U, 0xbe2d7535be577a11U, 0x3bd1332dbaffaafeU, 0x3d7aea3abd96bce7U,
  0xbe5a39843e007b4eU, 0x3ea4305ebead9285U, 0xbe8051e83e32358bU, 0x3d4aa9d9bdd7841aU,
  0x3d8ec77f3d7f54e9U, 0xbe720305bbd25f93U, 0xbc6c0465be567102U, 0x3df6141a3d8dcef5U,
  0xbd1f3ac33db330f8U, 0x3e4f90983d76f529U, 0x3e037ce03dc11d9aU, 0xbe8a55ad3c0f6449U,
  0x3c9110933df662a0U, 0x3d07a2b83bee7057U, 0x3d93242abe202675U, 0xbd0988c53ca662f7U,
  0xbd03eecc3cb3d360U, 0x3d5f2e64be175ed1U, 0x3e252c21bd4205a7U, 0xbd91d004bd0a5098U,
  0x3df3e2813e316d21U, 0x3cbc54e53cffd066U, 0x3dd91f1ebeb90267U, 0x3dd207db3bbc8279U,
  0x3e413a1d3d95f352U, 0x3d91008b3dd228d7U, 0x3e2c1362bdcf2fe7U, 0x3de12e733d895a49U,
  0xbd0a1ee2be0a2697U, 0xbc414af83db0ae0cU, 0xbd958bd2bd9e56eeU, 0xbe05c0d13ccf225cU,
  0x3cb1456bbe619b37U, 0x3d0e97bb3db28612U, 0x3e3a5ec3be4df482U, 0x3ca019edbc35c497U,
  0xbd22a9883d009caeU, 0xbd87ba6bbe6bbd14U, 0x3d2225283a68a8a4U, 0xbe3c7d91be165b71U,
  0xbd8ce1083d0a9352U, 0x3e57b2f23e67bf26U, 0x3e373e65bdff9251U, 0x3d9c24ea3d7c52f8U,
  0xbd79580a3d3add9fU, 0x3d4ad9363bb3bb92U, 0x3e30ff10bdcfcd88U, 0xbe13f1f0bc95df0fU,
  0x3d2ee0003c03382aU, 0xbd9a6ba63e36f6d3U, 0xbcf2a7a73e41c033U, 0xbd6bc6163df11807U,
  0x3ca73b37be462ee6U, 0xbda5557b3e78a5c3U, 0x3e50b784be122f49U, 0xbcd2f87a3eb4c111U,
  0x3e61b7cf3b918777U, 0xbe2a442e3bdb8b2eU, 0x3d73a0103e002291U, 0xbcbeacfa3e433766U,
  0x3ddec079be888d50U, 0x3d2590883e28f483U, 0x3e7e62b6be4e8ec4U, 0xbe160ef03e8e081eU,
  0x3e85548bbda8591eU, 0x3e35436fbdf82870U, 0xbd885d28be90d171U, 0x3cdfeed73e3ea599U,
  0x3dde0555bdc56f69U, 0x3de0a27dbd0ed6b1U, 0xbc223dd43e022b8cU, 0xbe4e46563dfecbe5U,
  0x3bfea15bbdb04f8fU, 0x3e4cb264bd65bf66U, 0xbd72d2aabe4051b1U, 0xbdac99c5bd618863U,
  0xbde90b0cbe36cd1eU, 0x3dd180cabd0d113cU, 0xbdffc62c3eb15a73U, 0x3daa28f3be8cc78aU,
  0x3d4c468e3d9a11a4U, 0x3e0a8796bd45e352U, 0x3e375350bd558c75U, 0xbdc74c873c90b11dU,
  0xbdd028043dc3387aU, 0x3dc3dc88bde9acb2U, 0xbdbe14a33e222f79U, 0x3dc17941bd7524c7U,
  0xbdcde498bc39d39eU, 0xbd284e99bd83900dU, 0xbd8b53bebcb49c94U, 0xbd98f879bd6974bbU,
  0xbe09c9eb3b850f20U, 0xbd105b64bd3ad402U, 0x3da5f9c73d3bf31dU, 0x3dbfb2723dc956a5U,
  0xbdd22b5cbdc59687U, 0xbdf399663dbe2f52U, 0xbd45bc3c3bda5ce0U, 0x3d1c35013dbe9a78U,
  0x3d2aaafbbd973b1cU, 0xbd45b920bca42b78U, 0x3c6340c4bd9b0493U, 0xbde21be63d03e707U,
  0x3dabbea2bde43e93U, 0xbdb2887ebbfa8c55U, 0xbd38fb02bcba4587U, 0xbd220ac3bcb362f4U,
  0xbe067106bca13641U, 0x3cf66e863d08bb7eU, 0xbd1fec223d58ce9dU, 0xbdb313eb3d279a9fU,
  0x3d47b798bdb0edb9U, 0xbd5e3847bd48eb5fU, 0xbc651f303baeb668U, 0xbdc5dc9cbdde22a7U,
  0x3dbd94a83db2aff0U, 0xbcff0ab8bd555a2aU, 0xbde90f6cbdfe37f0U, 0xbdc4f04dbc40eda9U,
  0x3c1bab00bd5cf156U, 0xbdced180bc971599U, 0xbd217810bd8d2df4U, 0x3bbbe19e3caa5aa0U,
  0x3b06c6a0bbe975d0U, 0x3dce48b63dbf5d15U, 0xbdbdae2a3de5ddceU, 0xbd6a5210bd5181b8U,
  0xbda851363d50340aU, 0xbdab0c543d5c504cU, 0xbd7da7d8bdb75094U, 0x3d3c34f1bd48aaa7U,
  0xbe096b02bb267eb6U, 0xbc9b7a793bf5508aU, 0x3c8fcdaf3d77bdd9U, 0xbddc0a47bde1b04eU,
  0xbcd84cdd3c008336U, 0xbd599158bda6c581U, 0x3d39d9ac3cc32ae5U, 0xbdb6e0c13b910520U,
  0x3c82b939bd0d8790U, 0xbd81e662be0aeaf3U, 0x3c28bdad3d23beafU, 0x3d026f1a3d97c156U,
  0x3d20a5f5be115f8aU, 0xbccdece13d9d95b2U, 0x3b270d06be0e4bf8U, 0x3ccccb003d56c3b4U,
  0x3d42cc9d3d3ff5b1U, 0x3da3a4193d169f93U, 0xbe0f377c3d20bcdbU, 0xbdf0380dbdd18685U,
  0xbdf5dd49be05c5baU, 0x3c95abd1bdae8578U, 0xbd398048bdd0469eU, 0xbcef807cbddbd805U,
  0x3cbdfd98bd9893baU, 0xbd33f714bd2f7d96U, 0xbd06fc3d3d8de40eU, 0x3cc1a3733b608846U,
  0xbd0a6628be04cfa8U, 0xbc9218943cc2a3c0U, 0x3b8d5aa0bda1f7d0U, 0xbd95db24bdbb9bb2U,
  0xbd99c82c3cfdec2eU, 0xbb4c03f1bc03ddaeU, 0x3db5adafbd44ddd8U, 0xbded10f93d3df7d6U,
  0x3b7426193d93d936U, 0x3daf2fd63d50b0f8U, 0xbcc8f8ae3de379ccU, 0xbd675ddd3ccd9aa9U,
  0xbdc60908bde57d1dU, 0xbde63660bdbaa90fU, 0x3bff44333d44ebb4U, 0x3d54fa0fbe070736U,
  0x3dae0fbc3d470421U, 0xbdc925d03ce8af9cU, 0xbde9487e3da5ba69U, 0x3d24ed043d2c5578U,
  0xbe0d35efbd0e178dU, 0x3da4b9833c008958U, 0xba4d178e3d0f4720U, 0xbd44b5ebbb9900b1U,
  0xbbddfc2e3d596fceU, 0xbc84669cbc9c2e6cU, 0xbdd86398bce615e0U, 0xbdebf785bd76953dU,
  0xbd85ecd6bc9b3f9cU, 0xbe02d9353ba96c26U, 0xbe03b52dbc792cd0U, 0xbd253cab3da6e182U,
  0xb9de9faebd64b4f7U, 0x3df3ccc8bd9e8ac9U, 0xbc205d01bcd46ccdU, 0x3da106b5bd9c2cb9U,
  0xbde1caf9bd368a09U, 0xbd1d269abdf0d33aU, 0xbdb891bf3d5cf470U, 0xbd22de323d568e7bU,
  0xbd41c4f0bdfe71b0U, 0xbdf8f32f3d48b2feU, 0xbd6f3328bde6f3afU, 0xbe0267b73d703bb4U,
  0xbd41f3f3bd271e61U, 0xbd3c1a573d8affeeU, 0x3dc1ab433d0e361eU, 0x3d80697dbc921996U,
  0xbb5b64bc3da7cd0eU, 0xbdd25400bdca9644U, 0xbca894f6bdd62478U, 0xbd044adbbdd8382eU,
  0xbb920ba0bba40083U, 0x3d2ee5643da768d1U, 0xbddd593dbd9b928bU, 0xbd963fd23cb3371cU,
  0xbbea90bc3dc2f023U, 0x3d7de1703c134ec3U, 0x3ce132b13cdd1138U, 0x3d69de84be0697a6U,
  0xbe03d0c53d94c132U, 0xbde86d65bd368571U, 0x3dc1b8b1bd454ec6U, 0xbd4b9711bde3cc27U,
  0xbc335d76bbe3c676U, 0x3d8021403dc3ec86U, 0xbd8d5446bdbb7ebfU, 0xbd311648bda74b6fU,
  0xbdfe8245bd79c66eU, 0xbd207dcebe08b790U, 0x3d4ff32b3cdc6f98U, 0x3d032c063b056127U,
  0xbd72e1fd3d8fb033U, 0xbd6a5f16bd721c34U, 0xbb2d79bbbe0b6f42U, 0x3d1ac45bbdbc4ef8U,
  0xbdfc222dbd8dd1a1U, 0x3d648bdcbe085069U, 0xbd9fabe0bd00d77cU, 0x3d9e4eea3d355695U,
  0x3daa882ebdd8133aU, 0x3d6c30533c2e4f5fU, 0x3c9df520be0be0e3U, 0xbd2b5b643d594856U,
  0x3d95c256bcc874f2U, 0x3bbcb6f7ba61e7b8U, 0xbdfdcd71bdaee52bU, 0x3cab2a44bbd6518dU,
  0xbdd5228cbc6dca75U, 0xbcd8850c3d5304b9U, 0x3cdba142bde03e28U, 0xbd913dd0bca943b4U,
  0x3d6b00803b01a7d0U, 0x3c94b590ba844f33U, 0x3dc1cd063dba7b24U, 0xbddb58183d96ad80U,
  0x3c0156a03c64c228U, 0x3ca0a1483dacd4cdU, 0xba2b628f3dc14dc2U, 0x3d8cd32cbc8d835cU,
  0x3d7241b8bdd4e82fU, 0xbd65578abbda62e3U, 0xbe024e533d06dc84U, 0xbdce5de2bd33bba7U,
  0xbd8053fd3d6ac9d4U, 0xbdc0cee5bdc046b2U, 0x3d4bd283bc81b648U, 0xbdb7aa073cfb92dcU,
  0xbde72730bbe61827U, 0xbd5ed9fabdd91862U, 0xbc852cd33d233e54U, 0x3cba9924bd6b7dc6U,
  0xbd9770713ad25c05U, 0xbc0d53c93cc1d78bU, 0x3dbe2841bdb16ffcU, 0xbe0fc5703d527168U,
  0xbdbe54b8bdf514aaU, 0x3a3883003b8ed3f7U, 0xbdd018be3dadb8dfU, 0xbdac7f34bddca11eU,
  0xbdafc87d3d98489dU, 0x3d03f6dcbe02dd06U, 0xbd9a01f4be028318U, 0xbe055008bded54aaU,
  0xbd1c117e3b09a182U, 0xbd3e6065bde8c1efU, 0x3d434eb8bdae462aU, 0xbbf8cc933d934ca1U,
  0xbcea6116bdcb19e2U, 0x3aad462fbd56b808U, 0x3d1a32a0bda40688U, 0xbd415b423d890851U,
  0xbdae8cb2bb9a7c7cU, 0xbd317fdf3dd9220cU, 0xbbeb8b9f3c7e5f9dU, 0xbd977b6abde031faU,
  0x3d234b253c5f0eabU, 0x3da8df28be0a90bcU, 0xbb1d6a3a3b68b703U, 0xbd0668073b97e54dU,
  0xbd5169fbbe0c46e0U, 0xbdaa29493d6e5dcdU, 0xbdbe187f3dba1daaU, 0x3d25e891bcad744fU,
  0xbe0f956b3ce61635U, 0xbbfa0fedbca731c4U, 0x3ce757643d0b82e6U, 0x3cb15438bd193db1U,
  0x3c87802bbe124adaU, 0xbe025cbbbdeaa55fU, 0xbd6b98cebd73fb3dU, 0xbd4ab878bd93bb5cU,
  0xbe06c4f63d926001U, 0x3b83bd463d0b090eU, 0x3ca44425bd027864U, 0xbcdf5ababd2c98e1U,
  0x3dc1411fbd962851U, 0xbdf1c899bdf50f73U, 0xbdc21ab1bd95d073U, 0xbbad4b09bdcbee2bU,
  0x3da579ca3c2f9118U, 0x3d0c6d52be1ceac3U, 0x3d10e695bddaf3c5U, 0x3cbfdd253d070788U,
  0xbe0b64813d4f9588U, 0xbdc86d783d79ed2cU, 0x3cd1d6603da9a61dU, 0x3d314ee0bdc7c66cU,
  0xbd38fcfebd4f1213U, 0xbd6508d53dcd668dU, 0xbdc07c2e3d21d08aU, 0xbcb173363ddc7b13U,
  0xbdf934943d4d95f3U, 0x3dbf372fbc83bf1fU, 0xbd90c348bca0d8caU, 0xbd710880bd4d6ef8U,
  0x3d8d0e423c27c9c8U, 0xbc1c9c36bdf9eb5cU, 0xbd35a5ca3cb2dfd8U, 0x3d24983bbdada25aU,
  0xbd37e464bdf44140U, 0x3c6df38abdee1983U, 0x3dbb42f93d143273U, 0x3cea90c83ddc66d0U,
  0x3d1697963d1f0a80U, 0x3d7b4b5a3cc5d828U, 0xbd183127bdfdb6f8U, 0xbdbc8cf13d468b20U,
  0x3ca1e6f0bc610495U, 0x3d8784dabdb234f6U, 0xbda5eda4be167e6dU, 0x3d1c59913a091db2U,
  0xbded80d83b40a70cU, 0x3dd4693fbd1d0105U, 0xbd40ea873d7f73f7U, 0x3d61579f3da2f04eU,
  0xbde42313bdd12607U, 0xbcad8684bd4cdc9cU, 0x3d876e17bda4c8bfU, 0xbacaaa7ebbb711b2U,
  0xbc1f142d3ba8b905U, 0xbd11a0cabd014b88U, 0xbd3963bc3c6b4055U, 0xbe269104bd9ca3c9U,
  0xbdcf980d3dc7d4a7U, 0xbdc6869a3ce93198U, 0xbd0936df3c95820dU, 0xbd8b96343d6d62adU,
  0x3bf379943b3a4c07U, 0xbde61ea6bd1ee121U, 0xbd19fbc2bdf56565U, 0xbd8cdaefbd642d0cU,
  0xbdec2c1e3c6f89cdU, 0x3cf39353bde5347fU, 0xbdabdc5e3d8b27f1U, 0xbd3a458bbdb1eed8U,
  0xbdb7cecfbda47b25U, 0xbdd956dbbbc3ae8eU, 0xbd032d0f3c1aafacU, 0x3ca159a93d390c44U,
  0x3cdc2d313db3a8bbU, 0xbbf1bfbdbe0fa464U, 0xbcc4e8cc3b922203U, 0x3b12f0e6bdf1096dU,
  0x3d5749a13d197857U, 0xbdeff710bdaa7884U, 0x3da2306abdf9f19aU, 0xbbd05ff93d081ea9U,
  0xbc3f56bfbe01be69U, 0x3d326ef7bd05244aU, 0xbda36af3bde77d1dU, 0x3d8bbcdbbd4c60c9U,
  0xbca3c2c8bde4f03eU, 0xbda1b7a0bc5b95e3U, 0xbd09f95cbe119289U, 0xbdb258c3b8784d8aU,
  0xbded20b3bdf64567U, 0xbd2b3e0a3d0b3a9eU, 0xbdd300af3d6aaf00U, 0xbb88c05dbdcdad3dU,
  0xbc25a879bdd05d24U, 0xbc9dd6aebd3afda8U, 0x3d872619bcd07b6aU, 0xbd483859bcd86fd4U,
  0x3c4d0a793b067ad7U, 0xbdd082fc3ddfec56U, 0xbdb3305b3d866b38U, 0xbdd7fe153db66ea2U,
  0xbdb369f9bd4bd1c7U, 0xbdfa0c913d5e50e2U, 0x3d24d896bd62ad7bU, 0x3dae315dbdc6e869U,
  0xbda833f83d383f9aU, 0xbd4edfb1bd3d744dU, 0x3d8c1b69bddb104bU, 0x3c76cb4fbdf8c053U,
  0x3c215e963d660de6U, 0xbdcf8d183d8645aaU, 0xbd87a6c5bda1c80cU, 0xbd46b8ee3db4bf86U,
  0xbdbeb889bddfb424U, 0xbe0b409fbdb90aa3U, 0x3d89b969bc6aa1c1U, 0xbda79e553ca95750U,
  0xbe033015be08800bU, 0xbb5869f3bb5849b8U, 0xbd8599c03dab8ddbU, 0xbe12b6293d09b6abU,
  0xbdef78fdbdfd7596U, 0x3cf09809bd148121U, 0xbdcc0b6dbe102843U, 0x3dc232b93d201dbdU,
  0xbd8a6762bce6dd10U, 0xbd8d4c233d4e2801U, 0x3d02a41bbc1e5efeU, 0xbdc653853d15821bU,
  0x3b9c461dbcbcc03aU, 0x3d06baa23de0fe77U, 0x3d8ddc4f3d6a14f5U, 0x3d1311ab3d988a8fU,
  0x3dd0d70f3d9b4456U, 0xbd13a71ebdb73c26U, 0xbd7d11733d143452U, 0x3d7f04c7bde5a904U,
  0x3cf2aa5bbd5a9277U, 0xbd79b0cfbd05fc2fU, 0x3d5aafe1bd1d14bbU, 0xbe0bc1d4bd2c65fbU,
  0xbdfbb018bd507314U, 0x3d6a73153c965211U, 0x3dc0fb33bd8e5949U, 0xbda3914fbda9e270U,
  0x3d8cd9a63dc96159U, 0xbd93ffb83be939d8U, 0x3da5dc12bdb00e3dU, 0x3c85f89dbcbe1e14U,
  0x3d5838abba0f9a8eU, 0xbd1e05d9bd36453dU, 0xbc2f5ade3d7e8e00U, 0xbc8af4823c6d0a52U,
  0x3d031236bcacecb9U, 0xbcb4288abd0d993aU, 0x3d7b4c57bdc7f0ceU, 0xbdca25b5bdd6317aU,
  0x3cdece8d3dba26b2U, 0x3c52f0c6bdbe06a7U, 0xbdc6e0483dac2edfU, 0xbe0b25823c861db5U,
  0x3c26e7ccbdedcebfU, 0x3ca27481bd24f80dU, 0xbd5fd3e5bd1b34c8U, 0xbd4fcdcdbcb6ec77U,
  0x3d8534cd3d3d02bcU, 0xbdf2a786bdb6e05aU, 0x3d7028d8bd8d968eU, 0xbd9bac973afa9370U,
  0x3d9c6b48bdd3735aU, 0x3d5c9065bb38d975U, 0x3d0b80c2bc970fddU, 0xbe0f6dbb3c5dd8b8U,
  0xbcb4ee54bd7a19ebU, 0xbd8ef3443da2c1d9U, 0xbd86fa16bcc87445U, 0xbdcf082cbdca58e5U,
  0xbe0711eebd9d9f70U, 0xbd9ebafc3d067eecU, 0xbda277523d57792aU, 0x3da361263d0ced74U,
  0x3df94cffbdadbda5U, 0xbe1ddeb1bcb6a55aU, 0xbdca57203da509d8U, 0x3e0e7b60be2d07b5U,
  0xbb48ec7f3e400726U, 0x3dac5d2d3df47027U, 0xbdfa1cd53c7b6458U, 0xbd2d7f8abd7bad73U,
  0xbd9d1dcabcf8d445U, 0xbe34f4033daa2885U, 0x3da6b1e0be2c175bU, 0xbe67b121bdf72f78U,
  0xbe152d25be7620edU, 0xbde1fd63be95a6c3U, 0x3de2a92fbceb5209U, 0xbe4f57e5bdd5efb8U,
  0xbe2f7e683e04fd8cU, 0x3e60356a3e50a7b3U, 0x3e1f66ea3e7ce0e0U, 0xbf721c243dcad825U,
  0x3e7cce663dfc6ca1U, 0xbdbace9cbeb91bf3U, 0x3e9842113e0a5284U, 0x3e2be1ab3e809632U,
  0xbe57221d3e0af6e5U, 0x3debdc3fbeb3035cU, 0xbf0e4c06bc5347aeU, 0xbf01d91dbd85365dU,
  0xbd82ba40bda442d0U, 0xbc2572cd3d317912U, 0xbe8604863e8592b6U, 0xbdc213553ec95726U,
  0xbeb01bc7bedb624aU, 0xbedf194cbd2e42a3U, 0xbf2ab017beeffc07U, 0xbe71e81abee2f01bU,
  0xbeeb620ebee40eb2U, 0xbe78ae94be5ea909U, 0xbeefb479be8ac471U, 0xbf0a7a2dbe26d641U,
  0xbd8d408dbe6fe497U, 0xbe8077b2be431d96U, 0xbe11acb9be918756U, 0x3e3d0445be262811U,
  0xbe5849b5bd8ce247U, 0xbe46d1cbbcd161b7U, 0xbe004097beb31949U, 0xbe85f2aebe9b0f2cU,
  0xbd40121e3cc47760U, 0x3dd1b388bbccf6a5U, 0x3ddd1f5e3cdf92baU, 0xbe9bc042bd027954U,
  0xbe0bebc03d837edcU, 0x3b19c834be888e0cU, 0x3d03bddbbd9af2e2U, 0x3de09df0beb15af3U,
  0xbcb3c4543e3285e4U, 0x3e3c6817be402142U, 0x3e054b743ec9192fU, 0xbf265ed53e761b30U,
  0x3e2ec05a3e530ff5U, 0x3d09ba46bd3bf00cU, 0x3eb489a3be1145bdU, 0x3ea87773bc5ff5d4U,
  0xbcd2ca5f3e58cb29U, 0xbdab5830bf37b97aU, 0xbe8745273e8141c5U, 0xbebec6813e35a3f6U,
  0x3e6e0cc0bd649df3U, 0x3e037f8abcdd2ce5U, 0x3c84e8eb3e118edbU, 0x3cdc6afc3ef789eaU,
  0xbea1d701be8e88bdU, 0xbe545182bef96029U, 0xbea0d6b2bebccceeU, 0xbf0bcb76be821307U,
  0xbdbbeb06be840c90U, 0xbe8d3cb4be743a5fU, 0xbea09374be0e1877U, 0xbedc0409be66f2a7U,
  0xbe95f886bee05fcdU, 0xbe2eb217bcd0d5b8U, 0xbe31ebeabedd3d42U, 0xbdffe9d4bed3c942U,
  0xbe98e468be972f2fU, 0xbd8f1d28be9691b0U, 0xbe7e09343d3327c4U, 0xbeadfb01bdd3a0d4U,
  0xbdf1714f3cabe0baU, 0xbdeab7c03ece8cdeU, 0x3dc4ba75bd32da08U, 0xbe39450abd357b4fU,
  0xbe26a0ff3bd09f30U, 0xbe2875d3be8626a1U, 0x3ddfc1a6beefca2bU, 0x3e1ffacebe26db56U,
  0x3e3ab8d63e7c1ffeU, 0xbea9e0e73e7b5b3fU, 0x3e41a7af3eb9a695U, 0xbe4ff1f23e56735fU,
  0x3e3c494c3d96a3c7U, 0x3d921a9a3c2748bcU, 0x3e742c99bf15e744U, 0x3e9ac0a43db723eeU,
  0x3e9429fc3e86ea13U, 0xbd235846bebbdb38U, 0x3d7681b03e8fc176U, 0xbe4daf3b3e5337ceU,
  0x3ebcf8c83ea362c5U, 0x3e1f2a783dae813fU, 0x3e8cd538be642cd7U, 0x3dcb55273eaac074U,
  0xbe3d92b33dcbfb92U, 0xbe1678a7bed8930bU, 0xbea8c61dbdd4ce58U, 0xbe023ee9bd85d21bU,
  0xbd6f6975bdae8ebeU, 0x3db08fe1bd429e76U, 0xbe11a8dd3d16ef93U, 0xbd9f12923cb19f78U,
  0xbe8676b5be968ce0U, 0xbe924cb9bd349141U, 0xbe638b03bebf564bU, 0xbe8ace96be2fa45eU,
  0xbe9423cfbe348f7bU, 0xbeba8fd4be22c96dU, 0xbe835bd83e1fa4c9U, 0xbeaef0753c778160U,
  0x3d0c57c3bdf0adceU, 0xbf1b66543eac10cfU, 0xbd13e0b6be818e2cU, 0x3e83af35be6f643bU,
  0xbe15c2c2bed3125eU, 0xbe8a18853d8f022eU, 0xbe64052abc8303e4U, 0xbe87e0b6be942877U,
  0x3d9a41d7bc253900U, 0xbe36d4203f1b94fdU, 0x3eccc3b13d8ac5ebU, 0x3dc1af0d3c3cb397U,
  0x3e70f4263e3c7b92U, 0xbd926e34be13f4e0U, 0x3e706a1bbcf19bf4U, 0x3db98d66beabd198U,
  0x3dbb50303e0c2757U, 0xbea20e353e6d836dU, 0xbb361c0d3e99cbf0U, 0x3e005b95bb4ec0d8U,
  0x3e2ad3fc3e8809efU, 0x3d9648093e36117eU, 0x3e545155bc9273f6U, 0x3df5e6b53e23db1bU,
  0x3d37e104bd3b9785U, 0x3e2eefea3e2a0de1U, 0x3d9e857fbe0479f1U, 0x3ed1b81d3db4a3b1U,
  0xbd8c6f313d93e819U, 0xbdbcbfea3e060c6fU, 0xbe05d6b6bde699f4U, 0xbdbb9d72bd6bf047U,
  0x3cb374d1bd7d7475U, 0xbd1d2109be87d77bU, 0xbe2d98bfbeb00664U, 0x3e1dad20bde010c7U,
  0xbe13736cbe1bc458U, 0xbd98b96d3d7f77bbU, 0xbe35685dbc6bea73U, 0xbe9d86d0be6f4652U,
  0xbc63cefdbe38662bU, 0x3e0a5a2ebd0f20f6U, 0xbe86451ebebbf140U, 0xbd625b0fbe6343caU,
  0xbe9c21f3bca40f8dU, 0x3e17c162be30bd15U, 0xbeb8601e3e983dc6U, 0xbe42f40abe8d583cU,
  0xbe89cd64be01a801U, 0xbe82232f3e9b33a0U, 0x3e239d8b3e35f137U, 0x3cff145abe0f064bU,
  0xbe0b8c0e3bcb45e2U, 0x3b6eba95be0959e8U, 0xbd9fcbb43e9fe2a9U, 0x3e9c8ea3bee09e9fU,
  0x3d436ed9bcf41666U, 0xbf1d1d543e179a76U, 0xbd91e7f4bac1a0f6U, 0x3e846d133df7552aU,
  0x3e083c20bc319eecU, 0xbdab7f353e00da3eU, 0x3e79fde0bd4b826fU, 0xbe4409263eb0611eU,
  0xbdc260e2be1766deU, 0x3c826a973e9ec35fU, 0x3e09b37bbe72be93U, 0x3d71cd23bd2e8bbdU,
  0xbe6a3c6ebc29b6d6U, 0xbceb8512be3c77ccU, 0xbe81478f3d8c0ffcU, 0xbe0f9bf0be657bb1U,
  0x3d49e0433cbd2d06U, 0x3cf1c9e73de67b58U, 0xbde202a83d887bd6U, 0xbcfe73a83bc1b6beU,
  0x3c5f0748bd97c957U, 0x3b0cebe0bdc03b75U, 0xbda63aaa3cbcb259U, 0xbdf75a503dd90c12U,
  0xbd84a443bc2194c2U, 0xbd1a42a5bdebce89U, 0x3ddd1ec9bdf3800aU, 0xbcd1a7603d88bc99U,
  0xbcc4343a3d8b0187U, 0xbdd901183cc01423U, 0xbca596473d3ec4b6U, 0x3cf38d8cbdc0775cU,
  0x3ddb8e823de264a3U, 0xbd825d663de2cbe9U, 0xbdc80bda3b2c251cU, 0xbd7cbf6fbddaf985U,
  0xbd6a20d8bdffd1cdU, 0x3bb6319e3da9a3dfU, 0xbd5acb85bd24aa55U, 0xbd4b3e2dbcf0d7bcU,
  0x3dc510aabc98cb5dU, 0x3d5094b03df20740U, 0x3d65506c3bafcdb6U, 0xbdf1f9b63d7358a7U,
  0x3dad7f38bde7aa9aU, 0xbd1cea3e3dd8e8edU, 0xbdfdd2823d41d46bU, 0x3d9d33eb3dc00b93U,
  0xb8ff31bbbda8f33dU, 0x3c0f73283d4a8188U, 0x3c58a033bdedec3fU, 0xbdcae240bd869ee5U,
  0xbdda0773bd9aff5fU, 0x3c4a36143de55b43U, 0xbd902b5abde2fc34U, 0x3b36ff563d7dabdaU,
  0xbcd859e33dc59454U, 0x3d57c99abd9105f6U, 0x3cec41523c5fe870U, 0x3aa77c403dd75e93U,
  0xbcea4d14bd8d95b6U, 0xbda7a7f03da4e220U, 0x3ac802c03d9c246eU, 0x3c75aa883d7e4a58U,
  0xbdae8edbbd30c4f9U, 0xbc9da41bbd2f02e1U, 0x3db93ef73d823c64U, 0x3d9091c23db3f60fU,
  0xbdb481e3bd3f97a0U, 0xbcad21273dd50ce6U, 0x3daa7393bc0d015aU, 0x3d45e5bcbca746e8U,
  0xbd839fd9bd3159a5U, 0x3ddd280a3db69083U, 0x3d5d5b43bc1dc6bbU, 0xbd23d1c63c820622U,
  0x3dc08815bd528abeU, 0xbd6e4a203dd37371U, 0x3d014ef73bb37048U, 0x3d0f2e78bd3ae987U,
  0xbd8aefe8bda47fc9U, 0xbdc8c8d2bdf23642U, 0x3d2778d33d954366U, 0xbd851cee3d992de6U,
  0x3d99bc45bc1a72c2U, 0x3dcb5050bdfc33daU, 0xbdc463393dc2ea60U, 0xbda86c67bdb189ffU,
  0xbc1d3027bc6c409bU, 0xbc6f13ff3d391910U, 0x3d059ad33d248310U, 0x3c6242813d1c4139U,
  0xbd8624da3b9f0bd9U, 0x3d6991913d87e3b1U, 0xbcb8af1ebd6daf71U, 0xbdc1e622bce6b0a2U,
  0xbdb9b7843c223673U, 0x3d84abbe3b280f40U, 0xbd2ed3a7bd69f7fcU, 0xbdd532a4bc05db61U,
  0xbd0068503db552fcU, 0x3d3efb0cbca099a4U, 0x3d154a83bd435fe3U, 0x3d0ed0593dde3848U,
  0x3d6e96673d1893e2U, 0xbcccc10ebdd16471U, 0x3c8480b23cacc0e8U, 0xbdc581b2bdfda105U,
  0x3dba5bffbd8ada5aU, 0xbb8b8f3b3d65ff6eU, 0xbdaaabca3d90c183U, 0xbcb6425fbd9cbbabU,
  0xbd476f53bd834a2eU, 0x3bef281abdd9e14fU, 0xbc75a3663d21a347U, 0x3d819a02bc1a34a9U,
  0xbcf372483c94555aU, 0xbcc942bbbd8616f2U, 0xbcaf4d3f3ca26f58U, 0x3ce2ed1abd870b83U,
  0x3d7d5061bda565cbU, 0xbd731d2fbd6f84a2U, 0xbdd4eaaa3dd744acU, 0x3d0e882c3c991b84U,
  0x3bfa36603c89798fU, 0xbcfe89743daa49f9U, 0x3d990df6bddf1d6aU, 0xbd685a0fbcd931ffU,
  0xbdeeea6a3cb38350U, 0x3d962536bdd5b777U, 0xbd0954ba3bb9ae78U, 0xbc9a2c44bd171c79U,
  0x3d676b36bd91718dU, 0x3d30a979bd93a156U, 0xbd924ce5bcd5918cU, 0xbda35cdc3c8e0d32U,
  0xbcaf524b3d92ac06U, 0xbd5ca51c3dc6b028U, 0x3dc54161bd161698U, 0xbcefcb8cbcac7c2aU,
  0xbdf0df413ccd9788U, 0x3daccf7e3bf53a20U, 0x3da131403d7d25e2U, 0xbd5d1c29bd9b5eaaU,
  0xbdb961e8bd286bfaU, 0xbcdb16cfbd8adbd5U, 0xbd1e825dbdea7645U, 0xbc91a2d8bdd88eedU,
  0x3ca42de5bc5763baU, 0xbdcbf695bdf665dfU, 0xbcd7bdbe3d6b133fU, 0x3d8e1dfbbc24a258U,
  0xbd92e941bd7bc3d3U, 0xbd5cea5ebd7e3acdU, 0xbdc6fbc93db07c09U, 0xbd5ac8b83bc1fa77U,
  0x3be6f026bd6558efU, 0x3dcbe74c3d895623U, 0x3d83ef193d7b5c6eU, 0x3da83ea9bcd69adbU,
  0xba1cebf0bd51c202U, 0xbdc0962ebd97d5ecU, 0xbdd8d27c3db4449bU, 0xbd91f6e5bcbbaf91U,
  0x3c1d48553dc5b87aU, 0xbdb7d9e03d8b3549U, 0xbdf99d8fbd923b16U, 0x3cf85a9abd901566U,
  0xbda55b203cef226aU, 0xbcc5f1f63d04d0d4U, 0xbd87c37c3d821965U, 0xbdc83d873d78f448U,
  0xbdd3016ebc566bcaU, 0x3d6ce7893dbbe592U, 0xbd1306303d5719b3U, 0xbcfdf9a23dc70097U,
  0x3cf34cb4bdf1a729U, 0xbdda4dbebde4102eU, 0x396b4d88bc6fd460U, 0x3df5b222bd413f57U,
  0xbde59c67bdf25dc8U, 0x3db4d7f0bca15108U, 0xbd4a36c6bd9de39cU, 0x3d4f3239bc3e4dd0U,
  0x3de61201bde038b4U, 0xbd133c22bdc7d9f8U, 0x3cbaa0f43cb57f48U, 0x3da416b2bda642e4U,
  0x3cfd4d3f3dc4b00bU, 0xbd41f714bcd8de98U, 0x3c82074fbd95a152U, 0x3dcd47df3c8be6c5U,
  0x3d51e518bc2d68c6U, 0xbd97fb1ebdfe1665U, 0x3d20fe713de476b5U, 0x3de71910bdfe5e30U,
  0xbdd200533d73a18fU, 0xbdc11aa1bdfd3d74U, 0xbc4951a3bdcfce13U, 0xbc2e479ebde8f671U,
  0xbc584230bbe7a396U, 0x3b196f52bc990fc5U, 0x3d7b7a773d9292c9U, 0xbd0ffbc2bce36dfbU,
  0xbd8767683d295920U, 0xbd3d489bbc020746U, 0xbd6d4aecbdad2a0fU, 0x3b532182bdce3819U,
  0x3dd15dde3c11e10cU, 0x3dcd0c62bdca6797U, 0x3da5d51abd60fb28U, 0xbd2b0f17bd810e77U,
  0x3bb02a80bde3562fU, 0x3dbf627abd734ccaU, 0xbd367410bd8124a3U, 0xbd5bfa4ebde492b6U,
  0x3d9ed4533e58fe40U, 0x3e5b3b253d6857b8U, 0x3dcac0c23ed4e58aU, 0x3dcc8dbe3e6bc75fU,
  0x3e9c3abe3e86dcf7U, 0x3e74e2413e403318U, 0x3d894d6a3ea85f1bU, 0x3e9c8c273e1e1d16U,
  0x3d235bcb3e16882cU, 0x3cc5c7a93d238aefU, 0x3db65f4a3e67c3f1U, 0x3e4158f83ea2c03eU,
  0x3e19253e3e41d141U, 0x3e9f81c63e261ac9U, 0x3e8228e43e669570U, 0x3e34591c3d912c14U,
  0x3e269d1b3e0741a6U, 0xbe1e454c3d915b13U, 0x3d63dd4b3df89114U, 0x3d88b96a3dcfea2bU,
  0x3e3f3c273d71d9d4U, 0x3e776a1c3d902e9cU, 0x3e242ccb3e2cb9fcU, 0x3d69a3b93de3748bU,
  0xbb45fc0c3c6568e5U, 0xbd960bc13e3b2c1aU, 0x3e3c783c3be45738U, 0xbe7ce1f6bd5264a0U,
  0x3ddf5b31bc128104U, 0x3d35caa1bcd827fbU, 0x3e02f90f3db0d62cU, 0xbe0bab1b3d836adbU,
  0x3e3cd84c3d7b04a0U, 0xbe078b973e252295U, 0x3ebcd0453c962e7dU, 0xbf172cad3e1c52e8U,
  0x3e230772bd94fabdU, 0xbd084602bdb5f123U, 0x3e0eea5f3daaa4f3U, 0x3dde951a3d268a47U,
  0x3e90da8c3e34a8d9U, 0xbc669a943c4c4e9eU, 0x3e7d1c6e3e1d8604U, 0x3efd92983e26d085U,
  0x3d95b9563e254036U, 0x3e01bf683ec02d55U, 0x3d48d14a3e3887ffU, 0x3e0f6ee3bddd8b14U,
  0x3e5d433d3e046035U, 0x3c4abf8f3e7259ddU, 0x3dbf22c43ce708f3U, 0x3ea7e8a8bdd2c3bcU,
  0x3d72fd583dc25f1eU, 0x3dd269763d91d2c3U, 0xbe288652be0ae3cfU, 0xbcce8140bdc0fcd6U,
  0x3e3df606bdae38f9U, 0xbe7263003e58cffcU, 0xbccab1e2bd4474c9U, 0x3d154093be2c9f2fU,
  0xbdd4390e3d6ee9c1U, 0x3d60bbd03e4a6d3aU, 0xbdc1f2d8beae82dcU, 0xbd9421833d8f9360U,
  0x3c353c6bbe31d046U, 0xbcbabe5f3e767bfdU, 0xbb3618cfbd7751c2U, 0xbe5ed590be07b037U,
  0x3a16dae83e314483U, 0x3b2ec7f3bdc06372U, 0x3d9d8153be510615U, 0x3dcc380e3ca62a3dU,
  0xbde16ca93e297b13U, 0xbe849dcd3e9240d9U, 0x3e1eae953e18fa6fU, 0xbe7d548cbcaa9962U,
  0x3ded06a13e22eaa4U, 0x3d2e99a03db6ca06U, 0x3e672f4ebdecc972U, 0x3e3d074d3dd39571U,
  0xbd96409bbca52ba5U, 0x3e0edd85bc26ae9aU, 0xbdc703a0bdc23daaU, 0x3ee4ab5fbdd75a46U,
  0x3ca84ace3e86bb1aU, 0x3d2b682cbdc874a4U, 0xbdfc0a80bd0a3817U, 0x3da30051bec06859U,
  0xbe187827bd2cca2fU, 0x3ccedb15be48ad92U, 0xbcf50346bdb2d126U, 0x3eb625c7be8e58d3U,
  0x3cc48d5bbcc62fbcU, 0x3d49acff3d9224b1U, 0xbe2425253d280c92U, 0xbd9262e6be132d9eU,
  0xbe613e69bda59f24U, 0x3d8622b3bdf10709U, 0xbe387e8dbaedf45cU, 0xbe08eea8be643152U,
  0xbe46b83cbce75d05U, 0xbe80cac3be8d4592U, 0xbdfe01f4be12ff31U, 0xbdbf5eb9bd9f2212U,
  0xbe92ec54be4653b0U, 0xbd9ffe71be4de7acU, 0xbe42d011bd96690fU, 0x3d7c3a63bea6b183U,
  0xbdcca1d7ba8d2f91U, 0xbed826ebbe44c617U, 0xbe560883bf0a98e7U, 0x3d92db64bdd6d518U,
  0x3bb6842fbdd56be2U, 0xbe6a8dd83ebd4af5U, 0x3ce9ed1ebd2755dfU, 0x3e3512bfbeab887bU,
  0xbd19bb1d3e47f51dU, 0xbe90852a3e0c081dU, 0x3d091699bebef169U, 0x3e155f00bc5f6a56U,
  0xbd1fe0a4bdfc5869U, 0xbe07f2c4be97df77U, 0xbcf527ae3dc16df5U, 0xbeb3e6f83d3cd491U,
  0x3e0be6d43e2249ccU, 0xbd41503ebe3053eeU, 0xbddea1d3bea02fc3U, 0x3daeec74bdcfb50cU,
  0xbe43052dbdae66dbU, 0x3e1bf321be13c5f8U, 0x3d4c77bd3c1328efU, 0xbeac7e0c3d116a36U,
  0xbda5e1893da6a355U, 0x3dccafbebdc56958U, 0xbc293a91bea637bdU, 0x3ddcbcd9bc9d5bf9U,
  0xbe9bd864bd0994ccU, 0xbe0aac55bed17114U, 0xbdc13ed63dc0f60aU, 0xbdcb0c3a3ccd1966U,
  0xbcddbd563e32581fU, 0xbe0d7dd93d0f94afU, 0x3dad4eb9bea3e22eU, 0xbd637ae83d252a5aU,
  0xbde52a433c473c5cU, 0x3e847f3cbee42ecbU, 0xbe89bd17bd1e9bf3U, 0x3d682ddc3d1a9558U,
  0xbe683024be29e1e4U, 0xbe8ba597bda08e6aU, 0xbe257729bca5efc3U, 0xbe0a7449bd04a4c1U,
  0xbe532222bd4d102fU, 0x3e267539bd10611cU, 0xbe6f28d6bdf150acU, 0x3e049e8cbe1d65eeU,
  0xbe61dd9d3d1bcec2U, 0xbe83a7c7bddae677U, 0xbd8e68253d742668U, 0x3e4bfe9bbea5228aU,
  0xbd8f19563da5a217U, 0xbe0e62ff3d0cdc93U, 0xbde547973e598af6U, 0xbe74602ebe228ef7U,
  0x3d0b9f7c3bc08493U, 0xbe883af9be54a998U, 0x3da547a2be998f78U, 0x3d33e3223ca2d03eU,
  0xbe1ccdc63d3d8b63U, 0xbded999ebd791dc9U, 0xbd1f7d41bc3037e4U, 0xbd306ba6bd3e41ceU,
  0x3d6173b43cdc6b47U, 0xbe5dd5bfbe4c4341U, 0x3d434589becdc757U, 0x3d95a6493e2b900fU,
  0x3e2ac3163e332de1U, 0x3d2a9d883d3c0569U, 0xbdd8a0073c9547f6U, 0xbd74a6193e49404aU,
  0x3e8341fbbde3929fU, 0x3dbdc6603dd12f45U, 0x3e84f220be57c126U, 0xbb11c2a73e8a4cf7U,
  0x3d62f0bd3e5dcf14U, 0x3eee742dbe132814U, 0x3d011795bd8dc8a5U, 0xbe17a7c63e4cf327U,
  0x3dbf66a53dcdfae8U, 0x3eb180953e15038dU, 0x3d9609753edec237U, 0x3b8d1d863d937464U,
  0x3dfd591c3e3cfe11U, 0x3eff019a3be0150dU, 0xbd1585433d8d5fd1U, 0x3d14d9533e7e5c1aU,
  0xbd0c009e3d251f84U, 0x3e364a1bbdcca007U, 0x3cd51ca03f232fbcU, 0x3dc88ebc3da1adc2U,
  0xbb9d7c2d3e3aa5a2U, 0x3e4381e0bd6f76eaU, 0x3da70b17bd3ac62cU, 0xbe064cbb3e94792aU,
  0x3e0878acbc60537fU, 0x3e29a8acbd9f328dU, 0x3e6e19bf3e3fe69bU, 0x3e2cbdd43d80e891U,
  0x3e1ba24f3dbced5eU, 0x3e5c9731bd674627U, 0x3e1ccb3e3e83228dU, 0x3cd85d303ea5bc8fU,
  0x3ea22ec83ea28fcbU, 0x3e0352d33e0357c2U, 0x3db337873e96315fU, 0x3e9b191cbbcd6cb3U,
  0x3e01b1dabd63706eU, 0x3db6baaebea9ff13U, 0xbd68b2d43dc27dbaU, 0x3eb15f6cbd814fa1U,
  0x3cca3bbf3dd28f98U, 0x3c5667ff3e905d55U, 0xbcfb1b1fbbddc6c8U, 0xbd03ccc93e465236U,
  0x3e259087bd46464dU, 0xbb2cb2a23ec36fa1U, 0x3e8575b73d4bbe06U, 0x3eb8b5623e12b06fU,
  0x3d381ddbbe24b89fU, 0x3dd129263dc8fef3U, 0x3e12bdffbd77ee9fU, 0x3c5caaf1bd7cec08U,
  0x3daf23623decb042U, 0x3e3206653def3167U, 0x3e9948743c90c9cfU, 0xbe45d249bcdb0642U,
  0x3e6b6bfe3e037569U, 0x3d1a9f60bdee43a0U, 0x3e6ddeae3d938ff7U, 0x3e1d1ab2bd0fce41U,
  0x3e6a0d1e3e27c017U, 0x3e2d4d4c3e3b61e1U, 0x3d964a153e83e8f1U, 0x3de8d4303d5b8b5fU,
  0x3e178aa03dfd6380U, 0x3e8172153e984745U, 0x3e07a9523eaed5d3U, 0x3e23183e3d8b5795U,
  0x3ea3c4613d946611U, 0x3bea29243df0eabaU, 0x3d00b6033e02ac31U, 0x3eec86f23cceb0a9U,
  0xbc5d8cb73e36f3dcU, 0xbb02a63b3e719d0cU, 0x3c7657183deb78d2U, 0x3ca76eb9bc2820afU,
  0xbd2fa02abe3a37c7U, 0xbe8c154b3e6fe6adU, 0x3d6590c6be3bfd52U, 0x3f25d5e8be6cc837U,
  0xbe1caa3fbdff3dffU, 0xbe6f12e53e124529U, 0xbe971d2dbda30a7eU, 0xbeabc6203dfc5e9fU,
  0x3d8c854abe605b68U, 0xbe2917b63f027771U, 0x3e383221bd64dac1U, 0x3ea2fddbbe7e4f90U,
  0xbd70d548bd87b5f2U, 0xbda05432be3346b4U, 0xbc82dab93e020ae6U, 0xbe0720febe24177aU,
  0x3d8363753d044d65U, 0xbe855ad23ed43333U, 0x3e9d3d923e29515aU, 0xbe77c5053dca4c1aU,
  0x3d9fefa33e03af8cU, 0x3daaeec33b3b5b59U, 0x3e7ac9873d47a0a1U, 0x3e4b94953e1c6a76U,
  0x3e0f8e2abc973634U, 0xbd95c70b3bdf2cb1U, 0x3cfbb7f23dcf5c20U, 0x3ebc809fbd5087b7U,
  0x3ddc320c3def40adU, 0xbd8a42703e025860U, 0xbd8673ecbd79b5feU, 0x3df26622bd2b4e23U,
  0xbb73e618be39c045U, 0x3b36aef7be8ef3c4U, 0xbcc4e230be09e608U, 0x3f057980be352d2eU,
  0xbda9457abe8ab35cU, 0xbde76f3e3e0f7ec1U, 0xbdfa22dbbcf2bde3U, 0xbe86411dbe06d80eU,
  0xbe9162e1be883c5aU, 0x3dd6ac25be260346U, 0xbed5676dbeb48ac0U, 0x3e1a23c3be8f7ad6U,
  0xbe197593be214597U, 0xbeb03b28be9077a2U, 0xbed668963eac6e14U, 0xbe6d1426be174e2bU,
  0xbecac3afbe354207U, 0xbd2f68bc3e2205ecU, 0xbe3776febdd3fcedU, 0xbd1cd085bedf4a89U,
  0xbe73d54dbe1a579cU, 0xbe80a392be977389U, 0xbec3576f3e82ce4cU, 0xbccc1c5bbee828adU,
  0xbdb94c85be075060U, 0xbe9fe50c3eb16251U, 0xbd6389b53e6d2328U, 0xbc144704bdfe906fU,
  0x3de34bbb3cc3ed67U, 0xbea97c9c3e0e82b5U, 0x3e0ee26dbea8dff8U, 0x3e04f3afbc85728aU,
  0xbe06f6a83dcf0067U, 0x3da71895bdd698beU, 0x3dd24961bd18f281U, 0xbe048a1bbda73a0eU,
  0x3e075c7a3d20407fU, 0xbcc3da6abd706ae3U, 0x3dfceba3be3bc8acU, 0x3db619b7bcb339beU,
  0xbdce20ff3e21b459U, 0x3edd6d68bf281fb1U, 0xbe3bf57e3e66655cU, 0xbe8765733e32899bU,
  0x3dbafa123e0df682U, 0x3bcf882ebe04b010U, 0xbde000f03d01b2c9U, 0x3e1377b53d5ce767U,
  0xbe8cd9e3bdaff1b6U, 0x3e835fefbf446b35U, 0xbeb4871bbd867572U, 0x3e49aeb0bdc317d4U,
  0xbe94bf5e3d625494U, 0x3d8fad533c396280U, 0xbe5b2e333e97d478U, 0xbc9c40263d6e7371U,
  0xbebffaf2bd82fecbU, 0x3eb8fcc1bea2a203U, 0xbe4a9a99bad59531U, 0xbdafb884be9807acU,
  0xbe88228abdb5dceaU, 0xbe742e5dbe7907a0U, 0xbd65785d3e82d379U, 0x3b0a2429be1020a8U,
  0xbe3ecf7e3e0daa38U, 0x3e970b3abe5c3910U, 0xbe7f03383e1d7aa3U, 0xbd64b32bbd076d36U,
  0xbcb7e69d3daa1998U, 0xbe349bfe3e001481U, 0x3ded467f3e54d723U, 0x3e31a2943d417e99U,
  0x3d9329c53df037afU, 0x3ec1bb063e066b17U, 0x3de8ebf53deb26d4U, 0x3c157f0d3df8c8bfU,
  0xbd9e9f3d3e8954beU, 0x3cebb0ca3e8e6437U, 0x3dad19b53c5f2ce5U, 0x3daa00d23c201594U,
  0x3eb2309e3e2b9f47U, 0x3e2937cbbd03355cU, 0x3ea694a53e51b480U, 0x3e1f6d533e22bed7U,
  0x3e327b9e3e82241eU, 0x3e3690253e836634U, 0x3ea2dce3bd1ce381U, 0x3e8458d23e236ea9U,
  0x3e7a50983dfe3720U, 0x3ea4ba37be939a65U, 0x3d534f703da66d36U, 0x3d4b169e3e1c4566U,
  0x3df47bce3d4beca1U, 0x3ecc437f3ea4ae37U, 0x3df14f793e54b876U, 0xbe0230a73ea843aaU,
  0x3e4d46b43e126086U, 0x3f0574af3db6568aU, 0x3ded57a1bd549a85U, 0xbdce8ea53e975f77U,
  0x3d4de9243dbf0877U, 0x3eb083253dcd9fe4U, 0x3cb564233eb8c70fU, 0x3e668961bda52664U,
  0x3ecb115d3edbb08dU, 0x3eba01b03ea941e6U, 0x3e9090103e771a00U, 0x3e3d8ae43efa8f55U,
  0x3e87f4423de5f828U, 0x3ec2037f3e8323bdU, 0x3e93362f3f17d660U, 0x3d15493b3deb7e6cU,
  0xbdc448003a48aa71U, 0xbdf4b8e9bd98f17bU, 0xbd535838baa19550U, 0x3cd10a7bbe1f78e3U,
  0xbcf104f33d4d9effU, 0xbd63190dbe167466U, 0xbd06fd6ebe284b37U, 0xbdb095c7bd88d56dU,
  0x3d98719e3d3fc45fU, 0x3e071aa0bcc91bb1U, 0x3d11baca3df5432aU, 0xbe90c7b83d0bbe03U,
  0xbd8b2202bd20cf4eU, 0x3d698d06be322381U, 0xbd57a36cbe3949f0U, 0xbcf94435bdfaf9acU,
  0x3cc3e3bfbdb09152U, 0xbd4434fabe4ad572U, 0x3db068d03b59f949U, 0x3bd2aa5ebd915f5dU,
  0xbd59d3ac3d35ca5eU, 0x3dc14b60bd0efb4cU, 0x3d98d90cbd15d421U, 0x3d835093bcb931ddU,
  0xbd8871773dabb603U, 0x3d08de37be95152eU, 0xbd4c06b9bd0773bcU, 0xbdaeec12bdf0ba32U,
  0xbddcb94dbcf4ab0fU, 0xbc94bdabbd80a306U, 0xbd54f9f5bbfabd73U, 0xbbd9f51bbdc836b0U,
  0x3d6cfba5bcbd8b6dU, 0xbcec3772be589c41U, 0xbe2932bdbc48dc97U, 0xbddae0933dd015bbU,
  0xbddc7ad9bd8f7e96U, 0x3d804f12bd1200ecU, 0x3d9fb4d6bd558fdfU, 0x3c4a2483bd344eb5U,
  0xbddbcae5be5bcd10U, 0x3d9a988a3d558deaU, 0xbdf48af2be035b3cU, 0xbe1b4951bddf376cU,
  0xbe3a1f1c3c4a2d04U, 0xbcd1f45ebe0eed2aU, 0xbdec64a3be437e67U, 0x3c4531ccbe0909a0U,
  0xbcc9b908bd47c549U, 0x3d7a1cadbd959244U, 0xbd96475c3c046cb8U, 0xbe2c13e1be0b4405U,
  0x3cfe66243db751deU, 0xbd0b165cbdef8057U, 0x3e0078d3be83935aU, 0x3de315e63d4b639bU,
  0xbdeea052be4581b7U, 0xbe3dbb91bdf8243eU, 0xbc299b3a3dc1d7ecU, 0x3e3ae6a9be3d8313U,
  0x3b70cb9b3daa5d0fU, 0xbe422f2e3d86a909U, 0xbde3ab0fbd3aeb1cU, 0xbda1fa343d85781bU,
  0xbb862e16bd986462U, 0xbe369301bcaa071bU, 0xbde89f8dbd5034d8U, 0x3de76962be2882f7U,
  0xbe03b435bde07941U, 0x3da7e16fbd5bd8c9U, 0xbe42a95ebd461396U, 0xbe06f58a3d1cd350U,
  0x3c7eed0bbc99ca03U, 0xbd8b06cc3e8c9270U, 0x3c6f1b25bcee16edU, 0xbc4e0a1f3d91b731U,
  0xbe07082dbe07867aU, 0xbe07c310bdce14f3U, 0x3ce96911bc2cd96bU, 0xbe57a8f9bdbb681aU,
  0x3d1d7a18bddba2efU, 0x3d8d14d33dbc5fd3U, 0xbdcefb6bbd66a767U, 0xbe3188c4bbcf4847U,
  0xbd456131bcf7fe53U, 0x3cd99426be695f27U, 0xbb724292be3bde24U, 0x3e0267c0bd8533d2U,
  0x3d6ea9f3bda53ff6U, 0xbea537633bd4c847U, 0x3d188be73d61f226U, 0xbe26b568bbb2ab03U,
  0x3e081322ba1f262cU, 0x3d1407a53bd014dbU, 0x3db6614ebdc1d50cU, 0xbc085d143e0b1d80U,
  0xbda9efabbd83ba42U, 0xbd9c3637be575f29U, 0xbe061f203d636635U, 0xbc61bc76bde39193U,
  0xbbff34b5be1abd6eU, 0xbb901c7a3e04217fU, 0xbdb2446abd09044eU, 0xbcf6e44b3d844361U,
  0xbdf4dd3bbe38a92dU, 0xbdefb3bd3d4166cdU, 0xbe1a70dcbe0affeeU, 0x3ca80c703c8376d8U,
  0xbe5b687bbe6b23e2U, 0xbc5ba89bbe4342e6U, 0xbe15cc593a097176U, 0xbe21adf63d41592cU,
  0xbe15a3d1baa2ab28U, 0xbd84cfa33ecd49f3U, 0xbd8c0838bc16fc7dU, 0xbe4abc90bd72031aU,
  0x3cecdf473ba09440U, 0xbdd1efcbbe8edf10U, 0x3d83b12abd06f811U, 0xbd0553d7be863af8U,
  0xbe1ef7cfbe26b0f4U, 0xbe2006df3da427ebU, 0xbaeeb447bd1c5e50U, 0xbe6d10e2bcacbe23U,
  0xbd20af293d76720eU, 0xbe19b2eabdb272e5U, 0xbd4a92c0be81671fU, 0xbc67ca113dc7a2f8U,
  0x3d1e9dfbbcdb966aU, 0xbe717466bdf6a5d1U, 0xbda33923bded7798U, 0xbe8649743d92b9c9U,
  0x3d4277b0bd52c3cbU, 0xbdd868483c873d39U, 0x3da0f688be198d64U, 0xbe01cc1c3d119a04U,
  0x3bfadec6bdf61320U, 0xbde6a7f4bdd64d71U, 0xbe084bddbd671b09U, 0xbe242021be32c0b2U,
  0x3d179bd1bdbc4ee6U, 0xbe2889c73ad9ff15U, 0xbd7b196c3d4b0a6fU, 0xbce3b6b4bd4c3e16U,
  0x3c40d62bbe295a68U, 0xbe0e9a993c2c5df5U, 0xbe1905dabe5599fcU, 0xbe4399d7bde3ee13U,
  0xbd983527bc302648U, 0x3c9a4564be329b3cU, 0xbce0ea04bd8c6243U, 0xbe7bb7febd6d1377U,
  0xbcdeae6bbbced46fU, 0xbe0df7093d355a09U, 0x3df3e4623d27a535U, 0xbe3e9d1fbe252cc4U,
  0xbdfd47c73d9bc0acU, 0x3dd6476ebd62391aU, 0xbdfa92d1bc947cc9U, 0xbc9b15d2be6ecbbcU,
  0xbd876183bcd5e9d4U, 0xbe9e0f7ebdcedb2fU, 0x3d2d42e4bc47038dU, 0xbdaff5cdbd097e37U,
  0x3cfe457fbd2f048eU, 0xbe0f69f6bdff5defU, 0xbdf0b32abe548175U, 0xbc97d72fbc6f3d94U,
  0x3d9276f8bd300abbU, 0x3cec32233d093060U, 0x3e162793bddbd4b1U, 0xbdd11d2d3e1089bbU,
  0x3e245078bc85de93U, 0xbbf2713ebda095f0U, 0x3daf2935bcb3cb28U, 0x3d0959653d5768f4U,
  0x3e0f847b3e0fad8cU, 0x3e121df4bdde57acU, 0xbca19094bd9f20b3U, 0xbe13a7df3e429864U,
  0x3d93bacebd6a4b3eU, 0x39be73e93d6e09a3U, 0x3d88c8ccbd05e641U, 0xbe12d117bd29aa97U,
  0xbde535c53d90a2a6U, 0x3dd33ee4be8dfd67U, 0xbd368c17bd002405U, 0xbcf5c04c3d885357U,
  0x3d7b1e08bda88f1cU, 0x3e0042d3bcb3191bU, 0xbd9b777f3e1f13aeU, 0xbd08bab5bd3f1b71U,
  0xbd30bb7abd72d15cU, 0x3de43f8dbdeccaf5U, 0xbda49ee43da9b63aU, 0xbda40a4bbd0ccaaeU,
  0xbdafef053db05320U, 0x3c881e0cbd101013U, 0x3af9d4cd3c810c0eU, 0x3daf1b4ebe2667d0U,
  0x3cba8dbc3c3d1aa3U, 0x3ad83cb13d2a3266U, 0x3cc5ea08bc1d4d2aU, 0x3d75c5f93db15b4eU,
  0xbcbfba71bdfec9a9U, 0x3d95c6cfbb82a312U, 0xbced365fbc106c2dU, 0xbd1a4fed3d324bcdU,
  0xbd97e6c9bde33166U, 0xbe40e36e3ea4a739U, 0x3e0ceafabea656c2U, 0x3e98b958bd13cd66U,
  0xbe92eba33e528255U, 0x3e0cfaf13e3c2b16U, 0x3e919cfa3e91836aU, 0x3d93378e3d78a7e6U,
  0x3eb819c43e9ee9e9U, 0x3e9ee99f3dcfaee6U, 0x3dcea622bd776eacU, 0xbd8127f13e18fc39U,
  0xbd37c9a5be2b5883U, 0x3ebcde41bdb3b17fU, 0x3cc075c33d8d8124U, 0xbe99e66f3ef54db4U,
  0x3e872f9e3de2d8feU, 0x3e8a34e5bdf46f8cU, 0x3e0324063d0b0646U, 0x3e24d244bcb8d83cU,
  0xbe9d6a233e1256e1U, 0x3e1183fb3caaafaaU, 0x3ec10e153e305aefU, 0xbeba7a703e82b5c0U,
  0x3ebb92e2be0e4287U, 0x3e06e25abf09f4fdU, 0x3e2c0a02bcf17d11U, 0xbe371c98bdb19cf5U,
  0xbe627df33c85c549U, 0xbe0ac9e8be61b9a9U, 0x3e9bc0443edbcaffU, 0xbe4bb98dbeb7e08cU,
  0xbeb44c643ed5a579U, 0x3de1a7883d1a5881U, 0xbd61740fbe366afeU, 0x3f0a2f8ebed6fdd2U,
  0x3e6138d43e4a8fecU, 0x3d3ab2103e19c0bfU, 0x3e920318be0faa9fU, 0xbebc07753ea623acU,
  0x3c90be823d869534U, 0x3e66fee8be41a737U, 0x3deb0215bd2fba3bU, 0xbe30b409be9d547cU,
  0xbe1b8f21bebde672U, 0xbe8a7388bea43a27U, 0xbd8a30f43e390e16U, 0x3df49ec3be97788aU,
  0xbdc04d943e7aa77aU, 0x3e3e40de3f047b65U, 0x3eb2597abd6605a4U, 0xbd80c23fbe9cd50fU,
  0xbe5afd42bd9172bfU, 0xbe9ae6c7be642b98U, 0xbe4a7ede3e9ab752U, 0x3e13eacfbe788c2bU,
  0x3e6466da3da0ca1eU, 0x3d35d109bdcfc415U, 0x3dacf70ebec996deU, 0x3eacedd4be27cef5U,
  0x3e814dc8be1a98faU, 0xbdb5ab783d484f88U, 0x3e8fa67d3f0e7e3eU, 0xbeb74ddebd31a2a0U,
  0x3e5db22e3e7d7268U, 0x3d2e3200be253ec7U, 0x3ea163833eade123U, 0x3ca2131ebe92fc22U,
  0xbeb940bd3ec13490U, 0xbeaee5eb3d9bb216U, 0x3e1494fa3e744673U, 0xbe7125f5be9f7138U,
  0xbe52ffac3e4c4703U, 0xbdaab5e9bea17ebfU, 0xbd995cec3e6532adU, 0x3eed7f18bea0ecaeU,
  0x3e675ce23e423840U, 0x3de2c2afbefa0fe7U, 0x3e8804cd3d7c96cfU, 0xbe33e3d83e5b172bU,
  0x3d11b9d73d746b94U, 0xbe5717c73e0ab91cU, 0x3d28968ebdb92abaU, 0x3de5fe5bbdf49f9dU,
  0xbb8341403db94901U,
};


ai_handle g_network_weights_table[1 + 2] = {
  AI_HANDLE_PTR(AI_MAGIC_MARKER),
  AI_HANDLE_PTR(s_network_weights_array_u64),
  AI_HANDLE_PTR(AI_MAGIC_MARKER),
};

